<unk>	0
<s>	0
</s>	0
<pad>	0
<0x00>	0
<0x01>	0
<0x02>	0
<0x03>	0
<0x04>	0
<0x05>	0
<0x06>	0
<0x07>	0
<0x08>	0
<0x09>	0
<0x0A>	0
<0x0B>	0
<0x0C>	0
<0x0D>	0
<0x0E>	0
<0x0F>	0
<0x10>	0
<0x11>	0
<0x12>	0
<0x13>	0
<0x14>	0
<0x15>	0
<0x16>	0
<0x17>	0
<0x18>	0
<0x19>	0
<0x1A>	0
<0x1B>	0
<0x1C>	0
<0x1D>	0
<0x1E>	0
<0x1F>	0
<0x20>	0
<0x21>	0
<0x22>	0
<0x23>	0
<0x24>	0
<0x25>	0
<0x26>	0
<0x27>	0
<0x28>	0
<0x29>	0
<0x2A>	0
<0x2B>	0
<0x2C>	0
<0x2D>	0
<0x2E>	0
<0x2F>	0
<0x30>	0
<0x31>	0
<0x32>	0
<0x33>	0
<0x34>	0
<0x35>	0
<0x36>	0
<0x37>	0
<0x38>	0
<0x39>	0
<0x3A>	0
<0x3B>	0
<0x3C>	0
<0x3D>	0
<0x3E>	0
<0x3F>	0
<0x40>	0
<0x41>	0
<0x42>	0
<0x43>	0
<0x44>	0
<0x45>	0
<0x46>	0
<0x47>	0
<0x48>	0
<0x49>	0
<0x4A>	0
<0x4B>	0
<0x4C>	0
<0x4D>	0
<0x4E>	0
<0x4F>	0
<0x50>	0
<0x51>	0
<0x52>	0
<0x53>	0
<0x54>	0
<0x55>	0
<0x56>	0
<0x57>	0
<0x58>	0
<0x59>	0
<0x5A>	0
<0x5B>	0
<0x5C>	0
<0x5D>	0
<0x5E>	0
<0x5F>	0
<0x60>	0
<0x61>	0
<0x62>	0
<0x63>	0
<0x64>	0
<0x65>	0
<0x66>	0
<0x67>	0
<0x68>	0
<0x69>	0
<0x6A>	0
<0x6B>	0
<0x6C>	0
<0x6D>	0
<0x6E>	0
<0x6F>	0
<0x70>	0
<0x71>	0
<0x72>	0
<0x73>	0
<0x74>	0
<0x75>	0
<0x76>	0
<0x77>	0
<0x78>	0
<0x79>	0
<0x7A>	0
<0x7B>	0
<0x7C>	0
<0x7D>	0
<0x7E>	0
<0x7F>	0
<0x80>	0
<0x81>	0
<0x82>	0
<0x83>	0
<0x84>	0
<0x85>	0
<0x86>	0
<0x87>	0
<0x88>	0
<0x89>	0
<0x8A>	0
<0x8B>	0
<0x8C>	0
<0x8D>	0
<0x8E>	0
<0x8F>	0
<0x90>	0
<0x91>	0
<0x92>	0
<0x93>	0
<0x94>	0
<0x95>	0
<0x96>	0
<0x97>	0
<0x98>	0
<0x99>	0
<0x9A>	0
<0x9B>	0
<0x9C>	0
<0x9D>	0
<0x9E>	0
<0x9F>	0
<0xA0>	0
<0xA1>	0
<0xA2>	0
<0xA3>	0
<0xA4>	0
<0xA5>	0
<0xA6>	0
<0xA7>	0
<0xA8>	0
<0xA9>	0
<0xAA>	0
<0xAB>	0
<0xAC>	0
<0xAD>	0
<0xAE>	0
<0xAF>	0
<0xB0>	0
<0xB1>	0
<0xB2>	0
<0xB3>	0
<0xB4>	0
<0xB5>	0
<0xB6>	0
<0xB7>	0
<0xB8>	0
<0xB9>	0
<0xBA>	0
<0xBB>	0
<0xBC>	0
<0xBD>	0
<0xBE>	0
<0xBF>	0
<0xC0>	0
<0xC1>	0
<0xC2>	0
<0xC3>	0
<0xC4>	0
<0xC5>	0
<0xC6>	0
<0xC7>	0
<0xC8>	0
<0xC9>	0
<0xCA>	0
<0xCB>	0
<0xCC>	0
<0xCD>	0
<0xCE>	0
<0xCF>	0
<0xD0>	0
<0xD1>	0
<0xD2>	0
<0xD3>	0
<0xD4>	0
<0xD5>	0
<0xD6>	0
<0xD7>	0
<0xD8>	0
<0xD9>	0
<0xDA>	0
<0xDB>	0
<0xDC>	0
<0xDD>	0
<0xDE>	0
<0xDF>	0
<0xE0>	0
<0xE1>	0
<0xE2>	0
<0xE3>	0
<0xE4>	0
<0xE5>	0
<0xE6>	0
<0xE7>	0
<0xE8>	0
<0xE9>	0
<0xEA>	0
<0xEB>	0
<0xEC>	0
<0xED>	0
<0xEE>	0
<0xEF>	0
<0xF0>	0
<0xF1>	0
<0xF2>	0
<0xF3>	0
<0xF4>	0
<0xF5>	0
<0xF6>	0
<0xF7>	0
<0xF8>	0
<0xF9>	0
<0xFA>	0
<0xFB>	0
<0xFC>	0
<0xFD>	0
<0xFE>	0
<0xFF>	0
wa	-0
▁k	-1
an	-2
li	-3
na	-4
ya	-5
▁m	-6
▁M	-7
ha	-8
▁wa	-9
▁ya	-10
in	-11
▁ku	-12
at	-13
en	-14
ri	-15
am	-16
ka	-17
▁na	-18
hi	-19
▁K	-20
on	-21
si	-22
ba	-23
er	-24
▁S	-25
za	-26
▁a	-27
▁t	-28
la	-29
▁A	-30
zi	-31
▁u	-32
▁n	-33
is	-34
le	-35
ia	-36
ta	-37
un	-38
es	-39
▁2	-40
▁T	-41
▁(	-42
ku	-43
▁s	-44
ji	-45
ki	-46
▁W	-47
▁N	-48
ra	-49
▁ma	-50
um	-51
yo	-52
ati	-53
ch	-54
di	-55
▁kwa	-56
da	-57
re	-58
▁U	-59
to	-60
▁Ma	-61
▁B	-62
em	-63
▁H	-64
ti	-65
om	-66
▁P	-67
▁i	-68
..	-69
hu	-70
▁20	-71
▁C	-72
▁J	-73
we	-74
ing	-75
ana	-76
▁p	-77
▁ha	-78
▁1	-79
ke	-80
▁c	-81
or	-82
ye	-83
he	-84
▁za	-85
gu	-86
▁v	-87
ani	-88
te	-89
▁D	-90
zo	-91
sa	-92
▁I	-93
bu	-94
go	-95
tu	-96
▁R	-97
ko	-98
▁ki	-99
fa	-100
ja	-101
ga	-102
lo	-103
▁F	-104
▁201	-105
de	-106
▁L	-107
fu	-108
▁b	-109
▁ni	-110
▁w	-111
ini	-112
▁la	-113
ar	-114
▁Y	-115
▁hi	-116
ro	-117
po	-118
ho	-119
▁am	-120
▁f	-121
ma	-122
it	-123
▁-	-124
ur	-125
atika	-126
ge	-127
▁V	-128
sha	-129
▁Ku	-130
me	-131
ama	-132
ata	-133
and	-134
▁to	-135
▁E	-136
▁katika	-137
enye	-138
st	-139
bo	-140
bi	-141
▁vi	-142
ed	-143
▁O	-144
mu	-145
▁hu	-146
AN	-147
▁o	-148
▁Wa	-149
do	-150
isha	-151
▁in	-152
▁si	-153
▁G	-154
▁Ki	-155
ru	-156
▁0	-157
pa	-158
ent	-159
▁cha	-160
▁the	-161
ema	-162
ber	-163
▁Z	-164
fan	-165
fi	-166
▁ka	-167
▁ba	-168
▁kuwa	-169
il	-170
...	-171
▁sa	-172
▁Ha	-173
ua	-174
▁Se	-175
be	-176
▁j	-177
wenye	-178
cha	-179
ce	-180
▁and	-181
ili	-182
▁ali	-183
▁yo	-184
ad	-185
pi	-186
ter	-187
ew	-188
▁d	-189
wan	-190
oni	-191
che	-192
oja	-193
mba	-194
▁(1	-195
ano	-196
el	-197
▁mi	-198
▁amba	-199
▁3	-200
sh	-201
00	-202
pe	-203
vi	-204
idi	-205
kuwa	-206
se	-207
▁ili	-208
LI	-209
▁tu	-210
mi	-211
uni	-212
▁of	-213
▁Mi	-214
al	-215
ve	-216
ul	-217
▁wana	-218
▁zi	-219
ember	-220
▁li	-221
ine	-222
22	-223
ze	-224
anga	-225
tum	-226
ungu	-227
▁WA	-228
▁YA	-229
eng	-230
ania	-231
bari	-232
su	-233
chi	-234
▁Vi	-235
▁2017	-236
WA	-237
▁ina	-238
▁kuto	-239
▁MA	-240
ation	-241
amu	-242
anz	-243
20	-244
HA	-245
fanya	-246
vyo	-247
rika	-248
▁ta	-249
ec	-250
▁Na	-251
▁Po	-252
▁kwenye	-253
ck	-254
isa	-255
anzania	-256
▁e	-257
shi	-258
uma	-259
vu	-260
▁Ka	-261
anda	-262
ll	-263
▁Ta	-264
kati	-265
lin	-266
ts	-267
id	-268
RI	-269
pen	-270
▁we	-271
▁re	-272
ate	-273
ele	-274
ina	-275
▁on	-276
▁4	-277
▁Ba	-278
cho	-279
▁mwa	-280
▁kama	-281
▁Ra	-282
▁for	-283
lia	-284
▁In	-285
ung	-286
IN	-287
du	-288
ongo	-289
▁5	-290
ria	-291
us	-292
jili	-293
▁una	-294
pt	-295
▁Si	-296
ada	-297
ment	-298
pp	-299
ene	-300
lea	-301
ut	-302
▁mu	-303
ews	-304
▁Sa	-305
▁KU	-306
▁y	-307
ok	-308
KA	-309
▁|	-310
chezo	-311
▁Tanzania	-312
esha	-313
▁ny	-314
▁(2	-315
weza	-316
▁pro	-317
▁2022	-318
ang	-319
▁ho	-320
▁wali	-321
et	-322
▁vya	-323
ifa	-324
kiwa	-325
eni	-326
ov	-327
▁ana	-328
oma	-329
MA	-330
ami	-331
▁zaidi	-332
▁Af	-333
TA	-334
ishi	-335
▁kup	-336
▁Habari	-337
sili	-338
ingi	-339
▁►	-340
▁#	-341
ende	-342
ol	-343
▁ch	-344
bwa	-345
ona	-346
ub	-347
EN	-348
kuu	-349
▁&	-350
▁au	-351
atu	-352
▁de	-353
fun	-354
BA	-355
uri	-356
▁your	-357
....	-358
kana	-359
tion	-360
ly	-361
▁r	-362
gh	-363
dhi	-364
ary	-365
▁Re	-366
▁h	-367
husu	-368
sema	-369
▁se	-370
ish	-371
▁g	-372
th	-373
log	-374
▁le	-375
TI	-376
ow	-377
angu	-378
ome	-379
dani	-380
▁Mu	-381
▁An	-382
ir	-383
▁NA	-384
▁be	-385
▁siku	-386
ato	-387
est	-388
▁10	-389
▁Sept	-390
▁yake	-391
▁hiyo	-392
ac	-393
▁6	-394
IS	-395
ila	-396
oo	-397
UN	-398
ver	-399
eb	-400
▁(3	-401
▁ye	-402
je	-403
enda	-404
IA	-405
kini	-406
▁kazi	-407
ari	-408
one	-409
RA	-410
ON	-411
ess	-412
taka	-413
ere	-414
ers	-415
▁ago	-416
yi	-417
▁Au	-418
▁yako	-419
▁ju	-420
bali	-421
deo	-422
▁mo	-423
ted	-424
his	-425
▁Kwa	-426
/0	-427
▁is	-428
▁you	-429
tumia	-430
▁7	-431
gr	-432
▁kutoka	-433
▁Fa	-434
ZI	-435
--	-436
ls	-437
▁Za	-438
▁Mo	-439
▁2016	-440
Ma	-441
▁ame	-442
▁watu	-443
pya	-444
▁Ni	-445
▁“	-446
▁$	-447
ct	-448
▁ji	-449
jia	-450
wi	-451
▁by	-452
ham	-453
gi	-454
liwa	-455
▁Nov	-456
▁To	-457
▁hii	-458
▁Hi	-459
ambo	-460
/1	-461
▁Mar	-462
ind	-463
▁kwamba	-464
▁an	-465
▁uli	-466
eshi	-467
onge	-468
kia	-469
cto	-470
shara	-471
▁aki	-472
wahi	-473
▁l	-474
▁2015	-475
▁September	-476
com	-477
ith	-478
umi	-479
co	-480
rikali	-481
riki	-482
gn	-483
▁Jan	-484
cri	-485
▁wakati	-486
▁Rais	-487
▁wan	-488
anc	-489
pan	-490
▁Ya	-491
va	-492
umba	-493
enya	-494
zaji	-495
▁Cha	-496
hem	-497
▁Jun	-498
ou	-499
tt	-500
▁(1)	-501
ry	-502
▁Mungu	-503
moja	-504
sta	-505
▁Michezo	-506
▁Pro	-507
▁con	-508
dha	-509
han	-510
▁Li	-511
▁wake	-512
GA	-513
iashara	-514
YA	-515
ote	-516
▁are	-517
ingine	-518
▁bu	-519
9)	-520
▁mw	-521
amii	-522
▁at	-523
▁(4	-524
TO	-525
▁Ap	-526
▁da	-527
▁baada	-528
▁Jul	-529
kwa	-530
mo	-531
▁HA	-532
per	-533
SI	-534
▁pa	-535
▁sana	-536
KO	-537
ty	-538
ni	-539
kea	-540
▁Tu	-541
▁com	-542
ume	-543
CH	-544
LA	-545
▁–	-546
▁8	-547
▁"	-548
▁us	-549
wana	-550
gha	-551
hat	-552
▁La	-553
zwa	-554
KU	-555
ss	-556
▁)	-557
umu	-558
wahili	-559
▁11	-560
▁kum	-561
anzi	-562
▁with	-563
no	-564
DA	-565
▁mwaka	-566
6)	-567
▁po	-568
amoja	-569
▁moja	-570
▁Con	-571
▁ime	-572
husi	-573
▁12	-574
icha	-575
chini	-576
▁June	-577
engine	-578
▁Fre	-579
▁juu	-580
▁uta	-581
dili	-582
▁Kenya	-583
201	-584
▁9	-585
limu	-586
ZA	-587
1)	-588
uku	-589
ES	-590
dio	-591
kam	-592
▁Jo	-593
ng	-594
▁Apri	-595
KI	-596
▁Le	-597
5)	-598
▁mat	-599
▁ambayo	-600
toa	-601
▁Co	-602
▁z	-603
▁ra	-604
▁/	-605
▁On	-606
▁US	-607
ctober	-608
book	-609
unge	-610
▁We	-611
▁De	-612
ran	-613
▁Com	-614
▁Pa	-615
ziri	-616
▁October	-617
7)	-618
▁ex	-619
▁The	-620
JI	-621
▁Feb	-622
kala	-623
isho	-624
▁May	-625
▁July	-626
▁nchini	-627
▁kila	-628
▁pamoja	-629
ud	-630
3)	-631
▁fa	-632
▁up	-633
▁aka	-634
uli	-635
buni	-636
cebook	-637
kazi	-638
MB	-639
▁zina	-640
scri	-641
▁Dec	-642
jen	-643
pita	-644
▁kuji	-645
▁Mkuu	-646
end	-647
ca	-648
21	-649
TE	-650
elanc	-651
ANA	-652
▁iliyo	-653
sia	-654
esa	-655
ribu	-656
mbo	-657
enta	-658
▁Al	-659
▁sasa	-660
▁2014	-661
babu	-662
▁...	-663
▁ZA	-664
taji	-665
ong	-666
gust	-667
zuri	-668
uru	-669
hemu	-670
TU	-671
arifa	-672
toto	-673
▁pe	-674
HI	-675
era	-676
ord	-677
qu	-678
▁August	-679
8)	-680
indi	-681
sign	-682
uti	-683
▁pia	-684
▁Febru	-685
▁tuna	-686
▁he	-687
▁mbali	-688
▁Wi	-689
radi	-690
▁so	-691
▁lakini	-692
heria	-693
▁KI	-694
▁hour	-695
▁te	-696
▁kut	-697
▁kuhusu	-698
EO	-699
▁mara	-700
hare	-701
bia	-702
kut	-703
▁kam	-704
GU	-705
▁lo	-706
▁Post	-707
uary	-708
kubwa	-709
▁April	-710
tanda	-711
oro	-712
YO	-713
eneo	-714
▁Lo	-715
pata	-716
▁January	-717
itia	-718
▁News	-719
▁You	-720
__	-721
▁hivyo	-722
DI	-723
25	-724
ubscri	-725
▁Video	-726
omes	-727
▁Vac	-728
les	-729
▁Te	-730
ot	-731
yu	-732
▁Zaidi	-733
▁leo	-734
wit	-735
ishwa	-736
2)	-737
rom	-738
mbu	-739
ments	-740
▁Facebook	-741
▁Serikali	-742
entals	-743
▁19	-744
fasi	-745
email	-746
▁ajili	-747
4)	-748
0)	-749
▁March	-750
▁Homes	-751
jini	-752
engi	-753
endelea	-754
ork	-755
futa	-756
▁KA	-757
▁Vacation	-758
ataifa	-759
▁rentals	-760
elancer	-761
▁news	-762
ght	-763
lic	-764
▁Me	-765
▁maji	-766
▁December	-767
wali	-768
LE	-769
chagu	-770
▁Ad	-771
yesha	-772
▁do	-773
uzi	-774
unti	-775
▁Waziri	-776
▁me	-777
▁bo	-778
ondo	-779
▁November	-780
▁email	-781
ort	-782
▁huo	-783
▁ndani	-784
▁ti	-785
▁this	-786
▁Mwan	-787
▁February	-788
isajili	-789
ne	-790
▁zo	-791
bili	-792
koa	-793
▁Ny	-794
▁Bi	-795
▁[	-796
▁Ja	-797
ble	-798
witter	-799
jec	-800
anza	-801
▁mtu	-802
ris	-803
▁Ar	-804
kio	-805
▁kufanya	-806
hari	-807
▁wame	-808
omba	-809
weka	-810
▁Ali	-811
▁hata	-812
▁ne	-813
▁al	-814
und	-815
▁14	-816
▁nchi	-817
pu	-818
▁habari	-819
▁hours	-820
tic	-821
▁have	-822
FA	-823
zima	-824
line	-825
kani	-826
ys	-827
ting	-828
▁Mwenye	-829
▁as	-830
heshi	-831
▁Kis	-832
sim	-833
leo	-834
ongozi	-835
arch	-836
▁Che	-837
▁wi	-838
wani	-839
▁So	-840
▁kati	-841
miwa	-842
kili	-843
SA	-844
ence	-845
eno	-846
▁kab	-847
▁Home	-848
zung	-849
▁15	-850
ill	-851
shu	-852
▁mmoja	-853
emba	-854
▁fu	-855
lewa	-856
▁web	-857
/2	-858
▁hali	-859
adhi	-860
hidi	-861
zungum	-862
eme	-863
day	-864
ame	-865
ANI	-866
MU	-867
▁,	-868
▁‘	-869
▁nafasi	-870
▁Freelancer	-871
▁huu	-872
▁Bo	-873
gram	-874
ld	-875
site	-876
jiri	-877
sho	-878
gle	-879
▁Da	-880
load	-881
ambu	-882
▁VI	-883
shwa	-884
▁18	-885
engo	-886
▁Una	-887
hitaji	-888
▁kuj	-889
RE	-890
▁that	-891
heshimiwa	-892
esema	-893
▁Ru	-894
▁Kazi	-895
himu	-896
od	-897
anchi	-898
lu	-899
amo	-900
▁kwan	-901
▁zote	-902
▁hapa	-903
own	-904
unga	-905
ingia	-906
▁USD	-907
faa	-908
PA	-909
▁Ji	-910
amba	-911
mbali	-912
ombe	-913
▁walio	-914
▁13	-915
MI	-916
andi	-917
▁ambao	-918
vuti	-919
bani	-920
ps	-921
▁LA	-922
ZO	-923
shiriki	-924
▁Katika	-925
/201	-926
▁Q	-927
▁Di	-928
▁kubwa	-929
embe	-930
fanyi	-931
........	-932
▁zili	-933
▁Jisajili	-934
so	-935
▁hilo	-936
insi	-937
dogo	-938
!!	-939
▁200	-940
umbe	-941
▁yana	-942
▁shu	-943
Maoni	-944
kon	-945
▁um	-946
edha	-947
rd	-948
▁.	-949
ME	-950
▁sababu	-951
ress	-952
▁mpya	-953
iaka	-954
▁Afya	-955
▁es	-956
▁©	-957
▁Ch	-958
▁Dar	-959
▁muda	-960
▁KWA	-961
fsi	-962
ali	-963
▁hili	-964
▁Blog	-965
▁it	-966
000	-967
ongeza	-968
▁Mheshimiwa	-969
idia	-970
anisha	-971
velo	-972
▁kui	-973
▁yao	-974
▁Kam	-975
▁Twitter	-976
geni	-977
▁our	-978
▁Ti	-979
▁Ri	-980
▁ulio	-981
tumi	-982
lay	-983
kisha	-984
▁16	-985
▁MI	-986
▁subscri	-987
▁from	-988
bout	-989
bar	-990
kata	-991
▁kupata	-992
▁+	-993
badili	-994
▁chini	-995
ist	-996
▁Goo	-997
▁waki	-998
GO	-999
weli	-1000
wezi	-1001
//	-1002
zeti	-1003
enu	-1004
fo	-1005
▁Biashara	-1006
mail	-1007
▁yetu	-1008
▁Afrika	-1009
▁un	-1010
▁uwe	-1011
umo	-1012
▁Ina	-1013
▁kuna	-1014
▁»	-1015
ject	-1016
inga	-1017
▁hadi	-1018
▁th	-1019
://	-1020
atibu	-1021
▁mwenye	-1022
30	-1023
engene	-1024
chuku	-1025
▁@	-1026
▁TA	-1027
▁*	-1028
gramu	-1029
bisha	-1030
ida	-1031
▁kitu	-1032
▁mbalimbali	-1033
anya	-1034
ric	-1035
▁Ex	-1036
-1	-1037
▁Check	-1038
----	-1039
▁usi	-1040
▁kupitia	-1041
duma	-1042
▁2013	-1043
LO	-1044
▁wote	-1045
▁kwanza	-1046
▁wenye	-1047
▁:	-1048
▁hatu	-1049
lish	-1050
▁usa	-1051
▁Ro	-1052
▁App	-1053
hali	-1054
undi	-1055
▁can	-1056
ibu	-1057
kno	-1058
▁17	-1059
kuru	-1060
KE	-1061
lama	-1062
▁TU	-1063
onal	-1064
HU	-1065
▁huduma	-1066
▁2021	-1067
low	-1068
yote	-1069
kiti	-1070
kari	-1071
lease	-1072
▁30	-1073
▁·	-1074
▁im	-1075
▁Mwa	-1076
py	-1077
▁ndi	-1078
▁htt	-1079
wenda	-1080
▁ata	-1081
▁co	-1082
▁mwana	-1083
liyo	-1084
ombi	-1085
penda	-1086
HE	-1087
endo	-1088
▁kuu	-1089
▁af	-1090
ownload	-1091
▁Mat	-1092
▁simu	-1093
▁Ju	-1094
▁ja	-1095
▁SA	-1096
▁will	-1097
jibu	-1098
▁Google	-1099
gon	-1100
shauri	-1101
wasili	-1102
amani	-1103
▁kuli	-1104
▁jina	-1105
ond	-1106
▁ar	-1107
▁bila	-1108
man	-1109
CM	-1110
▁2018	-1111
▁njia	-1112
ption	-1113
▁ut	-1114
▁wao	-1115
▁mas	-1116
▁alisema	-1117
sic	-1118
▁or	-1119
),	-1120
peri	-1121
▁design	-1122
pango	-1123
haki	-1124
:1	-1125
▁25	-1126
sion	-1127
kta	-1128
▁wata	-1129
laam	-1130
puni	-1131
▁wako	-1132
▁Wana	-1133
▁Kiswahili	-1134
▁hayo	-1135
ant	-1136
▁07	-1137
tandao	-1138
ple	-1139
▁miaka	-1140
jwa	-1141
JA	-1142
▁maisha	-1143
▁ita	-1144
▁Maga	-1145
▁app	-1146
lar	-1147
▁aliye	-1148
▁su	-1149
ci	-1150
ft	-1151
ries	-1152
ated	-1153
ial	-1154
▁Mare	-1155
ath	-1156
tar	-1157
▁hawa	-1158
ju	-1159
▁haki	-1160
ane	-1161
ms	-1162
▁my	-1163
lisi	-1164
▁inayo	-1165
▁ad	-1166
saidia	-1167
▁ume	-1168
idha	-1169
ugha	-1170
▁kuku	-1171
▁taarifa	-1172
▁video	-1173
▁kutoa	-1174
amia	-1175
SHA	-1176
▁Picha	-1177
YE	-1178
ese	-1179
NA	-1180
▁Jamii	-1181
▁Dk	-1182
fiki	-1183
.0	-1184
esh	-1185
mataifa	-1186
▁kutumia	-1187
lojia	-1188
ilia	-1189
▁24	-1190
bunge	-1191
▁SE	-1192
wili	-1193
rasa	-1194
atia	-1195
▁En	-1196
as	-1197
▁Masha	-1198
thi	-1199
angaza	-1200
▁fi	-1201
poti	-1202
▁All	-1203
ling	-1204
tumiaji	-1205
▁Search	-1206
▁lina	-1207
RU	-1208
▁Je	-1209
BU	-1210
▁Makala	-1211
▁watoto	-1212
▁Download	-1213
unia	-1214
zu	-1215
▁ambapo	-1216
▁'	-1217
▁maana	-1218
▁Kuhusu	-1219
▁Am	-1220
CHA	-1221
atikana	-1222
▁more	-1223
ph	-1224
fanyakazi	-1225
▁21	-1226
▁work	-1227
ING	-1228
▁man	-1229
▁Mwana	-1230
fungu	-1231
soma	-1232
▁ri	-1233
ww	-1234
fani	-1235
▁need	-1236
fuata	-1237
sisi	-1238
▁akaunti	-1239
▁sehemu	-1240
siliana	-1241
raka	-1242
▁Be	-1243
INI	-1244
▁di	-1245
▁wewe	-1246
▁And	-1247
urudani	-1248
indo	-1249
MBA	-1250
umbani	-1251
keo	-1252
▁CHA	-1253
FU	-1254
▁Air	-1255
▁Bu	-1256
▁Sh	-1257
▁pepe	-1258
WE	-1259
▁wanao	-1260
ilioni	-1261
fauti	-1262
▁Ne	-1263
now	-1264
elezo	-1265
kutano	-1266
▁zilizo	-1267
omo	-1268
▁kili	-1269
▁go	-1270
▁Rep	-1271
ilaya	-1272
▁Shi	-1273
chumi	-1274
velop	-1275
endeleo	-1276
gen	-1277
anzibar	-1278
ance	-1279
▁kina	-1280
▁website	-1281
▁amesema	-1282
toka	-1283
wala	-1284
▁masha	-1285
tact	-1286
▁Us	-1287
▁lili	-1288
▁Email	-1289
ges	-1290
fadhi	-1291
fanyika	-1292
▁Share	-1293
dia	-1294
).	-1295
▁23	-1296
-0	-1297
fumo	-1298
for	-1299
▁Man	-1300
yari	-1301
▁mambo	-1302
▁Burudani	-1303
▁wengi	-1304
▁wananchi	-1305
▁kun	-1306
read	-1307
▁Please	-1308
jua	-1309
▁22	-1310
jumbe	-1311
amb	-1312
▁nini	-1313
▁CCM	-1314
BARI	-1315
indu	-1316
esu	-1317
▁ambaye	-1318
▁use	-1319
piga	-1320
▁jo	-1321
chaguzi	-1322
ars	-1323
let	-1324
▁ngu	-1325
▁eneo	-1326
▁wetu	-1327
GE	-1328
▁hai	-1329
perience	-1330
uala	-1331
DE	-1332
iasa	-1333
▁Pre	-1334
▁muhimu	-1335
▁New	-1336
▁Elimu	-1337
▁yote	-1338
▁hivi	-1339
▁haya	-1340
▁ac	-1341
zara	-1342
▁ms	-1343
inu	-1344
▁huku	-1345
▁huyo	-1346
ghu	-1347
▁Jina	-1348
▁TAN	-1349
xt	-1350
▁Su	-1351
wango	-1352
riv	-1353
▁nje	-1354
lai	-1355
fano	-1356
kuna	-1357
▁hapo	-1358
knolojia	-1359
atizo	-1360
,000	-1361
▁hatua	-1362
▁Eng	-1363
rehe	-1364
RO	-1365
▁Read	-1366
▁bora	-1367
▁Copy	-1368
▁shi	-1369
▁kuta	-1370
art	-1371
lisha	-1372
ango	-1373
▁He	-1374
▁michezo	-1375
▁HABARI	-1376
▁2020	-1377
▁St	-1378
paka	-1379
▁Zanzibar	-1380
roid	-1381
ff	-1382
onyesha	-1383
▁Siasa	-1384
▁Bar	-1385
edia	-1386
kele	-1387
ement	-1388
▁Yesu	-1389
lat	-1390
tor	-1391
**	-1392
right	-1393
hisi	-1394
▁This	-1395
▁4.	-1396
kula	-1397
▁know	-1398
▁Ut	-1399
tis	-1400
▁26	-1401
▁sha	-1402
ywa	-1403
▁Watu	-1404
▁Mwenyekiti	-1405
▁Taifa	-1406
irst	-1407
os	-1408
tabu	-1409
HO	-1410
amini	-1411
ziki	-1412
▁Marekani	-1413
▁No	-1414
▁nyingine	-1415
▁fedha	-1416
▁$1	-1417
jana	-1418
▁wengine	-1419
▁Jum	-1420
▁Salaam	-1421
▁zinazo	-1422
▁27	-1423
▁zao	-1424
DO	-1425
red	-1426
▁Mt	-1427
chang	-1428
MO	-1429
jenzi	-1430
zungumza	-1431
▁Leo	-1432
▁SI	-1433
▁wat	-1434
▁picha	-1435
▁For	-1436
▁Usa	-1437
PO	-1438
zingi	-1439
lim	-1440
▁fre	-1441
penzi	-1442
ven	-1443
hank	-1444
ces	-1445
zama	-1446
▁More	-1447
▁06	-1448
▁serikali	-1449
PI	-1450
ction	-1451
▁Soma	-1452
gua	-1453
husiano	-1454
wadi	-1455
▁MW	-1456
atokeo	-1457
▁Chi	-1458
UNGU	-1459
▁Comments	-1460
▁29	-1461
uniani	-1462
funzi	-1463
ghuli	-1464
fisi	-1465
mali	-1466
▁About	-1467
zingira	-1468
fuli	-1469
▁Mw	-1470
ollow	-1471
gonjwa	-1472
▁read	-1473
▁data	-1474
▁Bwana	-1475
▁vile	-1476
ous	-1477
▁Ga	-1478
cial	-1479
50	-1480
▁map	-1481
▁Pe	-1482
shind	-1483
she	-1484
▁project	-1485
wake	-1486
▁mengine	-1487
▁nyingi	-1488
▁aina	-1489
zazi	-1490
qui	-1491
▁=	-1492
____	-1493
wanda	-1494
dai	-1495
▁mta	-1496
chukua	-1497
▁Sheria	-1498
▁03	-1499
swa	-1500
▁hizo	-1501
ws	-1502
aru	-1503
▁08	-1504
mbi	-1505
▁zenye	-1506
▁ro	-1507
▁Kama	-1508
stagram	-1509
bn	-1510
▁zime	-1511
▁Contact	-1512
king	-1513
▁Copyright	-1514
kua	-1515
▁Wat	-1516
ther	-1517
▁Ime	-1518
cal	-1519
risha	-1520
damu	-1521
sted	-1522
weze	-1523
▁Un	-1524
ZE	-1525
yan	-1526
int	-1527
hani	-1528
▁01	-1529
▁yangu	-1530
▁Simba	-1531
ervi	-1532
▁not	-1533
tekele	-1534
lamu	-1535
▁Hu	-1536
▁Wizara	-1537
▁akiwa	-1538
▁Bara	-1539
ulu	-1540
rti	-1541
▁wri	-1542
engeneza	-1543
res	-1544
▁TUKO	-1545
fe	-1546
wn	-1547
ger	-1548
23	-1549
▁mali	-1550
andishi	-1551
sti	-1552
INA	-1553
▁09	-1554
up	-1555
▁28	-1556
▁mwan	-1557
▁Thank	-1558
2022	-1559
▁first	-1560
▁Naibu	-1561
ity	-1562
▁ga	-1563
▁Magu	-1564
▁05	-1565
hamu	-1566
saada	-1567
▁Web	-1568
pika	-1569
▁baadhi	-1570
▁zawadi	-1571
▁kwenda	-1572
▁dhidi	-1573
umizi	-1574
CA	-1575
▁Onyesha	-1576
▁04	-1577
▁maeneo	-1578
ID	-1579
▁tena	-1580
uld	-1581
▁hao	-1582
▁mit	-1583
pende	-1584
▁biashara	-1585
rua	-1586
kumbu	-1587
▁new	-1588
▁mbili	-1589
esho	-1590
rea	-1591
huri	-1592
ezi	-1593
risto	-1594
pindi	-1595
▁cont	-1596
US	-1597
▁zake	-1598
▁vitu	-1599
huru	-1600
angazo	-1601
10	-1602
▁Sp	-1603
▁BA	-1604
jamii	-1605
▁lugha	-1606
▁Mas	-1607
▁mbe	-1608
▁Hii	-1609
▁maoni	-1610
▁tofauti	-1611
▁was	-1612
▁Uta	-1613
▁Haki	-1614
▁2019	-1615
kama	-1616
▁Magufuli	-1617
▁Fi	-1618
pokea	-1619
▁kutokana	-1620
▁asili	-1621
pele	-1622
▁iki	-1623
kaa	-1624
▁By	-1625
▁RA	-1626
mer	-1627
▁nyumba	-1628
▁Sho	-1629
▁Kan	-1630
pig	-1631
▁Magazeti	-1632
mini	-1633
bs	-1634
uduma	-1635
▁tayari	-1636
amilia	-1637
rm	-1638
pote	-1639
▁IN	-1640
idhaa	-1641
emo	-1642
kono	-1643
▁02	-1644
der	-1645
▁ndio	-1646
▁Sto	-1647
▁Wasiliana	-1648
▁Mhe	-1649
▁basi	-1650
jenga	-1651
▁like	-1652
▁Jinsi	-1653
▁kia	-1654
▁yenye	-1655
▁kabla	-1656
▁Jam	-1657
hn	-1658
▁http	-1659
▁Ung	-1660
▁min	-1661
▁2012	-1662
▁usiku	-1663
▁kweli	-1664
▁Baada	-1665
▁alikuwa	-1666
ER	-1667
▁en	-1668
ILI	-1669
▁letu	-1670
rida	-1671
ita	-1672
▁mradi	-1673
▁st	-1674
fikia	-1675
unguza	-1676
▁wasi	-1677
anyi	-1678
▁yaliyo	-1679
lls	-1680
▁Anwani	-1681
▁ikiwa	-1682
atego	-1683
▁post	-1684
▁ambazo	-1685
▁unaweza	-1686
bnb	-1687
licy	-1688
jo	-1689
▁subscription	-1690
ans	-1691
▁(5	-1692
▁nasi	-1693
▁hizi	-1694
▁Yo	-1695
lio	-1696
▁Huduma	-1697
▁AM	-1698
▁kusa	-1699
▁years	-1700
▁Ana	-1701
onekana	-1702
▁Airbnb	-1703
▁English	-1704
waida	-1705
patikana	-1706
inda	-1707
▁Chan	-1708
bit	-1709
TAN	-1710
ino	-1711
▁kua	-1712
tz	-1713
▁uku	-1714
hoto	-1715
▁barua	-1716
▁vizuri	-1717
pande	-1718
chu	-1719
▁kabisa	-1720
atukio	-1721
biti	-1722
get	-1723
▁Mkoa	-1724
ENYE	-1725
▁ko	-1726
▁Hel	-1727
▁jambo	-1728
▁afya	-1729
▁sh	-1730
ery	-1731
▁wageni	-1732
▁kufu	-1733
letter	-1734
▁Android	-1735
▁Tovuti	-1736
rans	-1737
▁sho	-1738
ked	-1739
▁Posted	-1740
cation	-1741
▁bina	-1742
▁As	-1743
ara	-1744
baya	-1745
tions	-1746
bed	-1747
:00	-1748
ved	-1749
ready	-1750
▁Maoni	-1751
▁nguvu	-1752
alum	-1753
▁uliopita	-1754
▁TV	-1755
▁Yanga	-1756
▁Tuma	-1757
▁Res	-1758
fung	-1759
blia	-1760
box	-1761
▁confi	-1762
islamu	-1763
▁Policy	-1764
▁bara	-1765
▁sheria	-1766
▁huru	-1767
▁uk	-1768
kiliza	-1769
ks	-1770
ereza	-1771
ents	-1772
bunifu	-1773
▁Is	-1774
rica	-1775
wanja	-1776
▁Unganisha	-1777
▁all	-1778
bara	-1779
▁Mak	-1780
▁Wilaya	-1781
:4	-1782
/2017	-1783
▁tarehe	-1784
▁Umoja	-1785
▁(9	-1786
kubali	-1787
▁kawaida	-1788
hariri	-1789
11	-1790
weke	-1791
▁AF	-1792
mia	-1793
OS	-1794
▁bado	-1795
▁res	-1796
iness	-1797
▁karibu	-1798
▁John	-1799
▁MP	-1800
▁Do	-1801
son	-1802
wasiliano	-1803
ANIA	-1804
▁Spika	-1805
▁uki	-1806
▁(7	-1807
▁gani	-1808
▁saa	-1809
hakikisha	-1810
▁wiki	-1811
▁Online	-1812
▁mwisho	-1813
▁wale	-1814
kee	-1815
▁already	-1816
dini	-1817
funga	-1818
▁uwezo	-1819
ture	-1820
▁Reply	-1821
▁NI	-1822
acy	-1823
▁nam	-1824
▁Septemba	-1825
▁jamii	-1826
▁yanayo	-1827
hifadhi	-1828
kto	-1829
ves	-1830
taifa	-1831
▁sisi	-1832
ded	-1833
land	-1834
andika	-1835
▁Kit	-1836
▁lazima	-1837
▁Taarifa	-1838
ard	-1839
▃▃	-1840
▁elimu	-1841
▁nili	-1842
unt	-1843
ach	-1844
tumika	-1845
▁upate	-1846
▁Tech	-1847
genzi	-1848
ony	-1849
▁Swahili	-1850
▁Ko	-1851
▁Ski	-1852
fika	-1853
▁(6	-1854
▁NE	-1855
▁Music	-1856
▁Ter	-1857
refu	-1858
essa	-1859
▁Ruto	-1860
biki	-1861
▁maga	-1862
induzi	-1863
▁Kimataifa	-1864
▁mfano	-1865
▁Dkt	-1866
rivacy	-1867
▁ke	-1868
hakama	-1869
zetu	-1870
▁jinsi	-1871
unda	-1872
ingwa	-1873
tal	-1874
▁Hata	-1875
................	-1876
▁kuweka	-1877
kosa	-1878
▁Programu	-1879
▁Design	-1880
kamili	-1881
▁Posts	-1882
▁Kuu	-1883
▁wangu	-1884
led	-1885
lma	-1886
▁Sha	-1887
▁wala	-1888
▁kit	-1889
vertis	-1890
▁Uni	-1891
▁mtoto	-1892
▁Mara	-1893
▁Bunge	-1894
▁Simu	-1895
▁kampuni	-1896
bor	-1897
lla	-1898
kurugenzi	-1899
▁Tuna	-1900
ghts	-1901
kis	-1902
ZANIA	-1903
▁DA	-1904
eru	-1905
▁hicho	-1906
umbu	-1907
hihi	-1908
▁comments	-1909
▁Kuwa	-1910
kao	-1911
▁newsletter	-1912
App	-1913
▁mkubwa	-1914
iny	-1915
ffi	-1916
▁siri	-1917
DU	-1918
rap	-1919
▁Kati	-1920
endaji	-1921
.”	-1922
zia	-1923
▁X	-1924
▁Lea	-1925
▁Ben	-1926
▁duniani	-1927
▁Kili	-1928
55	-1929
:3	-1930
▁maombi	-1931
tom	-1932
VYO	-1933
ML	-1934
umia	-1935
ishind	-1936
kuja	-1937
alid	-1938
eleza	-1939
dala	-1940
▁pili	-1941
▁Um	-1942
▁jarida	-1943
▁Katibu	-1944
▁chapa	-1945
▁mpaka	-1946
▁kula	-1947
▁maa	-1948
tain	-1949
▁Sera	-1950
▁programu	-1951
▁pesa	-1952
lizi	-1953
▁Ago	-1954
FI	-1955
▁hasa	-1956
▁msi	-1957
▁Wakati	-1958
▁kuanzi	-1959
▁Aka	-1960
engu	-1961
itwa	-1962
fund	-1963
ungano	-1964
▁valid	-1965
fsiri	-1966
▁kuja	-1967
lmashauri	-1968
▁Bongo	-1969
endele	-1970
▁Mpya	-1971
▁KATI	-1972
▁awa	-1973
▁31	-1974
OR	-1975
▁Weka	-1976
▁Fe	-1977
leta	-1978
koani	-1979
▁Map	-1980
▁Biblia	-1981
wez	-1982
▁maj	-1983
binu	-1984
▁chan	-1985
▁some	-1986
▁Lu	-1987
▁Zi	-1988
▁huko	-1989
▁vit	-1990
▁LEO	-1991
▁confirm	-1992
inter	-1993
▁Mambo	-1994
▁inbox	-1995
gs	-1996
▁Privacy	-1997
▁yeye	-1998
▁subscribed	-1999
ishindia	-2000
rahi	-2001
jira	-2002
▁Barua	-2003
har	-2004
24	-2005
logy	-2006
▁dham	-2007
▁Mtandao	-2008
▁Mon	-2009
▁Ms	-2010
zani	-2011
word	-2012
▁mbele	-2013
▁mna	-2014
▁1.	-2015
▁100	-2016
▁experience	-2017
▁nyumbani	-2018
▁Th	-2019
EA	-2020
ttest	-2021
orts	-2022
rani	-2023
,”	-2024
ooki	-2025
▁Wiki	-2026
▁kujishindia	-2027
▁Lin	-2028
ons	-2029
▁(2)	-2030
▁mkuu	-2031
▁vina	-2032
▁hottest	-2033
▁>	-2034
▁kipindi	-2035
geme	-2036
▁Polisi	-2037
▁viongozi	-2038
▁pi	-2039
▁FA	-2040
pewa	-2041
▁Jamhuri	-2042
▁shule	-2043
▁LI	-2044
▁Qu	-2045
biri	-2046
▁mimi	-2047
▁Mwanzo	-2048
▁kiasi	-2049
tes	-2050
cess	-2051
arufu	-2052
▁Instagram	-2053
anii	-2054
ding	-2055
zing	-2056
▁WI	-2057
lick	-2058
lima	-2059
SS	-2060
▁Inter	-2061
▁kura	-2062
▁Karibu	-2063
anja	-2064
tolewa	-2065
▁ndo	-2066
▁pale	-2067
yama	-2068
▁alipo	-2069
▁Star	-2070
▁maendeleo	-2071
bile	-2072
▁mon	-2073
▁Lakini	-2074
orld	-2075
▁1,	-2076
▁Kwan	-2077
▁Play	-2078
gor	-2079
▁has	-2080
form	-2081
jeti	-2082
▁zetu	-2083
chana	-2084
CT	-2085
▁mada	-2086
▁Ho	-2087
fiti	-2088
▁hakuna	-2089
▁wo	-2090
▁langu	-2091
▁JU	-2092
lp	-2093
▁his	-2094
▁Ge	-2095
linzi	-2096
mke	-2097
:0	-2098
▁maelezo	-2099
▁MAGA	-2100
athmini	-2101
▁kuhakikisha	-2102
▁matumizi	-2103
▁Up	-2104
▁usalama	-2105
▁bure	-2106
funzo	-2107
illi	-2108
fari	-2109
▁site	-2110
hud	-2111
mw	-2112
kwe	-2113
dege	-2114
▁mar	-2115
lozi	-2116
▁kis	-2117
▁Mta	-2118
▁Juni	-2119
shindi	-2120
kali	-2121
▁Siku	-2122
--------	-2123
▁Es	-2124
▁develop	-2125
ZETI	-2126
amad	-2127
▁msingi	-2128
CHE	-2129
angalia	-2130
cheza	-2131
zee	-2132
ambia	-2133
▁Prof	-2134
ondoa	-2135
hats	-2136
▁mazingira	-2137
katifu	-2138
▁•	-2139
▁kuzi	-2140
asisi	-2141
▁namna	-2142
dugu	-2143
▁ama	-2144
umla	-2145
▁Mradi	-2146
▁(4)	-2147
▁Ame	-2148
tumishi	-2149
▁kwani	-2150
kutana	-2151
tional	-2152
▁upande	-2153
▁Mimi	-2154
▁Advertis	-2155
▁timu	-2156
NE	-2157
▁mfumo	-2158
odoma	-2159
▁mwezi	-2160
elev	-2161
ingereza	-2162
▁mchezo	-2163
mp	-2164
▁bidhaa	-2165
amizi	-2166
▁Terms	-2167
▁Java	-2168
▁makala	-2169
▁Shu	-2170
fal	-2171
.1	-2172
▁KW	-2173
ombo	-2174
▁matokeo	-2175
amoto	-2176
Share	-2177
▁online	-2178
26	-2179
▁kuongeza	-2180
▁CO	-2181
▁mengi	-2182
▁PM	-2183
▁yoyote	-2184
sikiliza	-2185
cro	-2186
amond	-2187
BC	-2188
ister	-2189
rusi	-2190
▁tatu	-2191
SU	-2192
▁Kup	-2193
▁wanawake	-2194
▁Dis	-2195
▁tovuti	-2196
▁Dodoma	-2197
▁Ye	-2198
ungo	-2199
▁mkutano	-2200
▁MAGAZETI	-2201
▁lako	-2202
ktoba	-2203
▁nzuri	-2204
badiliko	-2205
raji	-2206
▁uchaguzi	-2207
▁sawa	-2208
tokea	-2209
min	-2210
▁inaweza	-2211
emp	-2212
▁mtandao	-2213
laya	-2214
wer	-2215
iliki	-2216
embelea	-2217
Wa	-2218
hatsApp	-2219
ANGA	-2220
kato	-2221
▁inter	-2222
ful	-2223
▁out	-2224
ring	-2225
keza	-2226
uth	-2227
▁yu	-2228
▁cre	-2229
▁Sasa	-2230
sini	-2231
▁mpango	-2232
▁Sy	-2233
▁jijini	-2234
smi	-2235
▁Follow	-2236
▁Oktoba	-2237
FUN	-2238
BI	-2239
▁Mis	-2240
▁dha	-2241
▁uj	-2242
▁ng	-2243
▁dunia	-2244
▁nina	-2245
CO	-2246
asa	-2247
▁MU	-2248
▁lime	-2249
▁kuka	-2250
▁Teknolojia	-2251
falme	-2252
▁tra	-2253
▁mwingine	-2254
ator	-2255
omp	-2256
fungwa	-2257
▁mwili	-2258
▁che	-2259
/20	-2260
▁vifaa	-2261
▁VID	-2262
chap	-2263
oking	-2264
▁wazi	-2265
▁one	-2266
▁Mkurugenzi	-2267
laa	-2268
▁TANZANIA	-2269
▁MO	-2270
▁UN	-2271
guzi	-2272
vo	-2273
▁Aki	-2274
▁tume	-2275
dadi	-2276
▁sio	-2277
▁Muungano	-2278
ates	-2279
▁chang	-2280
▁kan	-2281
ombea	-2282
ations	-2283
dy	-2284
▁pub	-2285
▁VIDEO	-2286
▁Sehemu	-2287
▁MKU	-2288
▁BU	-2289
zalisha	-2290
endesha	-2291
interest	-2292
sed	-2293
athi	-2294
▁Ofisi	-2295
tume	-2296
▁dis	-2297
bati	-2298
▁My	-2299
siyo	-2300
paswa	-2301
▁MUNGU	-2302
port	-2303
dau	-2304
goro	-2305
zea	-2306
laka	-2307
cre	-2308
▁help	-2309
zuia	-2310
dwa	-2311
angi	-2312
▁kuru	-2313
▁mkono	-2314
▁(22	-2315
mbia	-2316
lso	-2317
nology	-2318
ribuni	-2319
▁Baraza	-2320
▁ca	-2321
chezaji	-2322
▁AU	-2323
▁who	-2324
Ime	-2325
▁HAPA	-2326
▁Ac	-2327
▁Next	-2328
dhibiti	-2329
▁ا	-2330
▁unao	-2331
▁ru	-2332
▁kijamii	-2333
LIA	-2334
▁provi	-2335
▁dhambi	-2336
▁https	-2337
hau	-2338
wekwa	-2339
▁uka	-2340
▁Ili	-2341
▁Top	-2342
▁anaye	-2343
▁($	-2344
chagua	-2345
▁TO	-2346
▁JI	-2347
▁Mataifa	-2348
19	-2349
lly	-2350
Tu	-2351
fahamu	-2352
▁shughuli	-2353
▁Halmashauri	-2354
YI	-2355
▁lililo	-2356
▁Mbunge	-2357
firi	-2358
hamani	-2359
▁Archi	-2360
▁KATIKA	-2361
SH	-2362
yuta	-2363
▁WANA	-2364
erved	-2365
▁WhatsApp	-2366
▁kushiriki	-2367
ima	-2368
eshwa	-2369
▁HI	-2370
▁vy	-2371
▁Tra	-2372
vig	-2373
ompyuta	-2374
vious	-2375
▁Mashariki	-2376
▁2011	-2377
dress	-2378
amuzi	-2379
▁mama	-2380
▁swali	-2381
▁Comment	-2382
▁BO	-2383
kataba	-2384
:5	-2385
jiji	-2386
gin	-2387
▁Skills	-2388
▁vijana	-2389
▁time	-2390
ware	-2391
▁Sam	-2392
enga	-2393
▁★	-2394
fungua	-2395
tegeme	-2396
▁Mei	-2397
▁fur	-2398
▁Samia	-2399
▁whi	-2400
fisa	-2401
▁Gu	-2402
andao	-2403
zito	-2404
▁kuingia	-2405
▁(5)	-2406
yombo	-2407
▁content	-2408
▁ile	-2409
chungu	-2410
▁wanafunzi	-2411
tia	-2412
ating	-2413
karibisha	-2414
UR	-2415
▁ujenzi	-2416
enge	-2417
emi	-2418
wemo	-2419
▁no	-2420
▁kumu	-2421
▁mjini	-2422
▁Ca	-2423
babisha	-2424
▁Hapa	-2425
▁cho	-2426
lii	-2427
...]	-2428
ongoza	-2429
amua	-2430
▁2.	-2431
▁Pinterest	-2432
▁kadha	-2433
wezesha	-2434
▁sto	-2435
ero	-2436
▁(3)	-2437
ISI	-2438
▁2,	-2439
over	-2440
▁PA	-2441
▁wam	-2442
▁Ubunifu	-2443
▁Akaunti	-2444
▁Agosti	-2445
Imeisha	-2446
▁Chama	-2447
▁MB	-2448
lani	-2449
▁Uhuru	-2450
▁Kwanza	-2451
77	-2452
▁Subscri	-2453
▁Rec	-2454
▁[...]	-2455
pwa	-2456
▁kuanza	-2457
pport	-2458
▁milioni	-2459
tube	-2460
▁Im	-2461
▁Maisha	-2462
▁Ab	-2463
▁asilimia	-2464
▁chama	-2465
view	-2466
▁says	-2467
▁Africa	-2468
takiwa	-2469
ily	-2470
40	-2471
▁Word	-2472
Ha	-2473
pendo	-2474
toria	-2475
CE	-2476
ragha	-2477
gia	-2478
ervice	-2479
RIKA	-2480
▁Chu	-2481
amlaka	-2482
▁She	-2483
255	-2484
▁ndiyo	-2485
▁Maelezo	-2486
▁ent	-2487
▁Develop	-2488
▁Audio	-2489
ties	-2490
In	-2491
vel	-2492
teja	-2493
url	-2494
▁fe	-2495
kundi	-2496
med	-2497
▁here	-2498
iri	-2499
kun	-2500
VY	-2501
▁kutu	-2502
atua	-2503
▁mwenyewe	-2504
▁Data	-2505
▁(8	-2506
▁Mana	-2507
▁Pia	-2508
▁log	-2509
▁kuki	-2510
mited	-2511
▁Relev	-2512
▁per	-2513
▁SO	-2514
▁waka	-2515
staa	-2516
▁chakula	-2517
▁Edu	-2518
AD	-2519
▁HU	-2520
▁Relevant	-2521
pokuwa	-2522
pular	-2523
▁ilikuwa	-2524
▁suala	-2525
MBE	-2526
▁Website	-2527
vun	-2528
▁Siri	-2529
▁(8)	-2530
▁muziki	-2531
▁Uchaguzi	-2532
qua	-2533
iya	-2534
▁ambalo	-2535
IFA	-2536
▁Kutoka	-2537
bio	-2538
fer	-2539
▁Diamond	-2540
/09	-2541
▁It	-2542
unua	-2543
ISHA	-2544
ambua	-2545
ganda	-2546
▁ujumbe	-2547
VE	-2548
▁kiwango	-2549
▁75	-2550
▁naye	-2551
gister	-2552
▁tangu	-2553
▁Wafanyakazi	-2554
eli	-2555
▁Juma	-2556
labu	-2557
zungu	-2558
▁Kitu	-2559
▁Maji	-2560
pania	-2561
UA	-2562
▁Technology	-2563
▁Subscribe	-2564
▁2010	-2565
pert	-2566
▁comment	-2567
▁DO	-2568
▁sahihi	-2569
▁malipo	-2570
ambuli	-2571
▁wh	-2572
MBO	-2573
gue	-2574
ds	-2575
▁Col	-2576
▁Wri	-2577
▁YO	-2578
▁changamoto	-2579
▁kimataifa	-2580
▁Lat	-2581
▁month	-2582
ton	-2583
▁Click	-2584
shinda	-2585
net	-2586
▁Nyumba	-2587
▁vita	-2588
linda	-2589
▁AP	-2590
▁Julai	-2591
▁karibuni	-2592
ters	-2593
bina	-2594
ron	-2595
▁50	-2596
31	-2597
▁Mahusiano	-2598
▁Mwanza	-2599
▁dawa	-2600
yansi	-2601
▁nime	-2602
bora	-2603
▁bei	-2604
▁lake	-2605
▁cooki	-2606
tuma	-2607
▁Uchumi	-2608
lect	-2609
undo	-2610
▁kusema	-2611
enza	-2612
▁blog	-2613
▁Sep	-2614
▁kuona	-2615
▁Mit	-2616
▁!	-2617
▁makubwa	-2618
ree	-2619
▁jana	-2620
zim	-2621
hone	-2622
▁kisha	-2623
ambi	-2624
▁kuo	-2625
▁awali	-2626
▁mp	-2627
ugh	-2628
▁maalum	-2629
shirika	-2630
zini	-2631
▁Ajiri	-2632
▁Kas	-2633
▁rahisi	-2634
ratibu	-2635
AC	-2636
▁Kitaifa	-2637
▁kilicho	-2638
▁Kab	-2639
▁msaada	-2640
ZIRI	-2641
stani	-2642
Ba	-2643
▁about	-2644
▁Uk	-2645
▁maneno	-2646
biashara	-2647
rusha	-2648
▁View	-2649
WS	-2650
▁Wan	-2651
LU	-2652
poteza	-2653
dema	-2654
▁Enter	-2655
▁kujua	-2656
▁rasmi	-2657
▁Tr	-2658
▁gi	-2659
tive	-2660
▁Mama	-2661
uka	-2662
uaji	-2663
▁moto	-2664
ast	-2665
▁huyu	-2666
▁mashabiki	-2667
all	-2668
chama	-2669
GI	-2670
shukuru	-2671
▁Pata	-2672
kuta	-2673
▁Mahakama	-2674
jali	-2675
tandaoni	-2676
▁lin	-2677
▁Uj	-2678
atwa	-2679
▁amani	-2680
▁Hello	-2681
▁yame	-2682
▁Tuko	-2683
▁kwake	-2684
▁ura	-2685
indows	-2686
inyi	-2687
▁kuendelea	-2688
inzani	-2689
chambu	-2690
▁Popular	-2691
chwa	-2692
▁Maendeleo	-2693
▁kile	-2694
▁Anga	-2695
▁polisi	-2696
vigation	-2697
▁Des	-2698
▁wakiwa	-2699
www	-2700
60	-2701
HP	-2702
▁Kila	-2703
▁kuele	-2704
▁haraka	-2705
);	-2706
sikia	-2707
▁Previous	-2708
pira	-2709
kakati	-2710
▁(6)	-2711
▁masuala	-2712
GAN	-2713
saidi	-2714
250	-2715
pitali	-2716
tangaza	-2717
shindano	-2718
▁huwa	-2719
ctor	-2720
wepo	-2721
org	-2722
ssa	-2723
kabi	-2724
dishi	-2725
▁Kristo	-2726
▁(20	-2727
atilia	-2728
▁kidogo	-2729
lan	-2730
▁Mp	-2731
▁mtumiaji	-2732
▁tuli	-2733
▁would	-2734
▁Videos	-2735
▁Awa	-2736
siasa	-2737
Vi	-2738
▁His	-2739
▁trans	-2740
▁kisa	-2741
▁ulimw	-2742
ark	-2743
amaa	-2744
weet	-2745
▁kuliko	-2746
raphi	-2747
▁Willi	-2748
FAN	-2749
▁any	-2750
▁kutengeneza	-2751
▁if	-2752
▁JA	-2753
▁Kuna	-2754
cy	-2755
shirikiano	-2756
/10	-2757
kh	-2758
▁Inc	-2759
▁kujenga	-2760
press	-2761
▁Limited	-2762
▁umeme	-2763
use	-2764
28	-2765
dent	-2766
▁Maa	-2767
▁3.	-2768
ilamu	-2769
ftware	-2770
▁ule	-2771
fanikio	-2772
LOG	-2773
TV	-2774
▁sta	-2775
ishe	-2776
▁mabadiliko	-2777
▁Ke	-2778
VU	-2779
▁Usi	-2780
▁hazi	-2781
▁kiu	-2782
▁mt	-2783
▁bali	-2784
funza	-2785
▁Shirika	-2786
BO	-2787
▁asi	-2788
cript	-2789
▁Tags	-2790
▁Mawasiliano	-2791
▁WAZIRI	-2792
que	-2793
gombea	-2794
zoe	-2795
gra	-2796
▁40	-2797
kwi	-2798
▁yali	-2799
27	-2800
▁5.	-2801
▁(7)	-2802
▁matatizo	-2803
▁Mwaka	-2804
hana	-2805
▁Jobs	-2806
ategories	-2807
▁mafuta	-2808
99	-2809
tegemea	-2810
▁+255	-2811
▁Kwenye	-2812
kika	-2813
wapo	-2814
▁Experience	-2815
2017	-2816
ongeze	-2817
SHARA	-2818
▁gari	-2819
▁requi	-2820
kezo	-2821
▁Pi	-2822
▁view	-2823
tafuta	-2824
▁Mbe	-2825
****	-2826
pany	-2827
Ku	-2828
▁Maja	-2829
▁iliyopo	-2830
/06	-2831
fuko	-2832
▁name	-2833
uliza	-2834
▁Free	-2835
▁Machi	-2836
▁produ	-2837
VI	-2838
ambana	-2839
vie	-2840
▁star	-2841
▁ap	-2842
▁5,	-2843
shindwa	-2844
▁bus	-2845
fua	-2846
▁Kamati	-2847
hudi	-2848
hara	-2849
andaa	-2850
▁fursa	-2851
▁PHP	-2852
▁familia	-2853
________	-2854
▁idadi	-2855
umuiya	-2856
▁Ita	-2857
▁Photo	-2858
silimali	-2859
usu	-2860
ings	-2861
▁mkoa	-2862
▁AN	-2863
ticles	-2864
▁mafunzo	-2865
▁sekta	-2866
fanye	-2867
/11	-2868
▁kuanzia	-2869
tokana	-2870
CHEZO	-2871
simamizi	-2872
▁nao	-2873
peni	-2874
tea	-2875
ult	-2876
▁Min	-2877
ticle	-2878
▁neno	-2879
▁thamani	-2880
kus	-2881
▁Clo	-2882
▁MPYA	-2883
▁days	-2884
boresha	-2885
RIA	-2886
45	-2887
▁get	-2888
ny	-2889
lini	-2890
wo	-2891
ren	-2892
con	-2893
▁Menu	-2894
▁also	-2895
▁pre	-2896
▁share	-2897
▁moyo	-2898
▁job	-2899
▁mji	-2900
angazaji	-2901
▁but	-2902
▁rem	-2903
▁Arusha	-2904
rics	-2905
gele	-2906
raha	-2907
uari	-2908
▁mrefu	-2909
▁tuta	-2910
▁Msaada	-2911
▁bajeti	-2912
▁je	-2913
15	-2914
▁taifa	-2915
▁Cont	-2916
▁nzima	-2917
ishia	-2918
dit	-2919
▁China	-2920
lingana	-2921
dhali	-2922
aa	-2923
MIS	-2924
shine	-2925
ongea	-2926
▁namba	-2927
▁Nasi	-2928
shoto	-2929
age	-2930
▁lengo	-2931
▁mawa	-2932
ONI	-2933
alamu	-2934
juli	-2935
hama	-2936
ENT	-2937
fariki	-2938
▁spe	-2939
uz	-2940
▁BI	-2941
▁mch	-2942
stem	-2943
lishe	-2944
omu	-2945
▁Ripoti	-2946
tekeleza	-2947
CHI	-2948
▁INR	-2949
▁hau	-2950
▁Nchi	-2951
bal	-2952
▁(13)	-2953
▁Cre	-2954
▁Wato	-2955
▁vs	-2956
▁Kusini	-2957
ving	-2958
FF	-2959
ban	-2960
▁Oct	-2961
▁William	-2962
▁tatizo	-2963
nal	-2964
▁30,	-2965
▁Chagua	-2966
raphic	-2967
==	-2968
/05	-2969
lingi	-2970
▁Mada	-2971
▁Masharti	-2972
TION	-2973
iro	-2974
▁King	-2975
keting	-2976
▁Aprili	-2977
▁(21)	-2978
▁Rel	-2979
siri	-2980
▁mkoani	-2981
ongoni	-2982
▁Show	-2983
▁maarufu	-2984
▁kim	-2985
▁bi	-2986
changia	-2987
▁Rights	-2988
PE	-2989
pop	-2990
husika	-2991
▁hiki	-2992
▁Nya	-2993
veloper	-2994
tina	-2995
▁›	-2996
44	-2997
▁Januari	-2998
▁RAIS	-2999
▁kusoma	-3000
ondoka	-3001
zidi	-3002
▁upendo	-3003
cts	-3004
anyiko	-3005
ambulisho	-3006
▁Dunia	-3007
LIO	-3008
▁Sta	-3009
rican	-3010
▁Ingia	-3011
tail	-3012
▁des	-3013
lity	-3014
▁(17)	-3015
▁HT	-3016
sasi	-3017
dem	-3018
chambuzi	-3019
▁Apps	-3020
by	-3021
▁kubadili	-3022
ervices	-3023
▁Pr	-3024
essi	-3025
▁Ujenzi	-3026
▁Usalama	-3027
2.	-3028
RS	-3029
WI	-3030
▁gu	-3031
▁sita	-3032
zed	-3033
▁BLOG	-3034
▁walikuwa	-3035
▁Kusoma	-3036
▁Chadema	-3037
▁rep	-3038
▁hati	-3039
▁Matangazo	-3040
lie	-3041
ral	-3042
▁Zina	-3043
90	-3044
harama	-3045
▁Lugha	-3046
amaduni	-3047
essage	-3048
▁United	-3049
▁Reserved	-3050
▁ndugu	-3051
▁Jumat	-3052
▁KWENYE	-3053
▁Fedha	-3054
▁Har	-3055
ridi	-3056
▁bro	-3057
/07	-3058
iti	-3059
▁Yako	-3060
▁Uganda	-3061
DANI	-3062
80	-3063
▁Windows	-3064
zaliwa	-3065
SE	-3066
▁CA	-3067
▁2008	-3068
gumu	-3069
QL	-3070
pia	-3071
▁Katiba	-3072
fla	-3073
cus	-3074
▁27,	-3075
▁zamani	-3076
▁(19)	-3077
▁Balozi	-3078
BE	-3079
▁10,	-3080
bao	-3081
unde	-3082
▁page	-3083
▁binafsi	-3084
▁their	-3085
▁Nyingine	-3086
giza	-3087
ning	-3088
pedia	-3089
husiana	-3090
▁inc	-3091
ONGO	-3092
▁Name	-3093
lished	-3094
65	-3095
den	-3096
▁business	-3097
▁kadhaa	-3098
33	-3099
▁uchumi	-3100
▁ambacho	-3101
wekezaji	-3102
▁teknolojia	-3103
IASHARA	-3104
ortu	-3105
▁Mwenyezi	-3106
▁VYA	-3107
▁imani	-3108
▁Sports	-3109
/03	-3110
hili	-3111
▁vili	-3112
/12	-3113
▁ilivyo	-3114
ster	-3115
ENI	-3116
very	-3117
▁buil	-3118
tumwa	-3119
▁barabara	-3120
engwa	-3121
▁iP	-3122
▁using	-3123
cted	-3124
▁logo	-3125
▁tukio	-3126
jects	-3127
kwenda	-3128
ative	-3129
▁kesi	-3130
-19	-3131
dara	-3132
▁189	-3133
▁Wak	-3134
▁damu	-3135
jaa	-3136
baki	-3137
▁Stu	-3138
▁MICHEZO	-3139
ISA	-3140
▁Kar	-3141
/01	-3142
▁ndege	-3143
bert	-3144
▁wawili	-3145
▁3,	-3146
▁Go	-3147
ner	-3148
▁looking	-3149
▁months	-3150
ANO	-3151
▁day	-3152
▁mis	-3153
▁mwanamke	-3154
29	-3155
▁26,	-3156
▁wilaya	-3157
▁Nam	-3158
▁CH	-3159
▁visi	-3160
▁(10	-3161
VID	-3162
▁other	-3163
▁ال	-3164
chakato	-3165
▁Sit	-3166
▁them	-3167
bing	-3168
▁writing	-3169
▁Blogger	-3170
▁(9)	-3171
▁navigation	-3172
ull	-3173
round	-3174
▁Nyumbani	-3175
▁ima	-3176
ssword	-3177
▁Categories	-3178
▁{	-3179
hami	-3180
▁ila	-3181
yota	-3182
furahi	-3183
Ta	-3184
▁Nje	-3185
▁itakuwa	-3186
pengele	-3187
/08	-3188
▁address	-3189
kwaa	-3190
▁MKUU	-3191
▁SU	-3192
▁ME	-3193
fanywa	-3194
/02	-3195
▁Tazama	-3196
▁Mtume	-3197
▁Ulaya	-3198
▁cookies	-3199
▁Jeshi	-3200
gement	-3201
▁Ser	-3202
▁free	-3203
▁mahali	-3204
▁KUTO	-3205
▁0.0	-3206
tekelezaji	-3207
▁Tafuta	-3208
hoji	-3209
▁Watoto	-3210
▁hewa	-3211
simamia	-3212
▁mujibu	-3213
▁Bus	-3214
omi	-3215
▁Utumiaji	-3216
kosi	-3217
tics	-3218
▁Novemba	-3219
▁pla	-3220
▁want	-3221
hri	-3222
count	-3223
▁kuchukua	-3224
ople	-3225
▁majibu	-3226
▁kuti	-3227
▁ardhi	-3228
zingatia	-3229
ransa	-3230
▁matukio	-3231
▁4,	-3232
ket	-3233
▁kitabu	-3234
disi	-3235
mwa	-3236
▁RE	-3237
▁Familia	-3238
▁Ng	-3239
▁23,	-3240
▁PI	-3241
▁Related	-3242
/04	-3243
▁which	-3244
kwimu	-3245
▁Tume	-3246
▁Fran	-3247
▁6.	-3248
hifadhiwa	-3249
fy	-3250
▁miradi	-3251
shiri	-3252
▁Bro	-3253
▁nyuma	-3254
▁ukurasa	-3255
▁Njia	-3256
▁(11)	-3257
SO	-3258
▁kilimo	-3259
handisi	-3260
zam	-3261
rial	-3262
wishi	-3263
▁fulani	-3264
▁what	-3265
78	-3266
TH	-3267
▁142	-3268
▁TE	-3269
▁6,	-3270
▁12,	-3271
▁Latest	-3272
Na	-3273
gory	-3274
▁Kuji	-3275
▁login	-3276
ando	-3277
fafan	-3278
▁Power	-3279
▁Viongozi	-3280
▁only	-3281
lobal	-3282
▁magari	-3283
zb	-3284
kano	-3285
fanikiwa	-3286
▁mil	-3287
▁BIASHARA	-3288
▁Per	-3289
▁akizungumza	-3290
▁kinacho	-3291
soft	-3292
▁Media	-3293
▃▃▃▃	-3294
▁Hakuna	-3295
▁NEWS	-3296
zungumzo	-3297
oved	-3298
▁Fu	-3299
▁soko	-3300
Blog	-3301
fya	-3302
▁Mch	-3303
▁par	-3304
▁Maswali	-3305
▁(22)	-3306
mesa	-3307
▁Mwi	-3308
▁Fo	-3309
▁(12)	-3310
▁PO	-3311
chunguzi	-3312
▁Dr	-3313
ungeni	-3314
anpop	-3315
national	-3316
▁Kilimo	-3317
MBU	-3318
indua	-3319
▁EN	-3320
▁Bw	-3321
▁ndogo	-3322
▁mbaya	-3323
konda	-3324
▁Matukio	-3325
▁kamili	-3326
▁kuya	-3327
ante	-3328
▁make	-3329
UNI	-3330
▁development	-3331
wia	-3332
▁ukweli	-3333
▁kulala	-3334
miza	-3335
▁ambavyo	-3336
ategory	-3337
kulima	-3338
▁Get	-3339
▁kus	-3340
▁aliyo	-3341
alth	-3342
▁Kampuni	-3343
▁Allaa	-3344
ek	-3345
▁Bingwa	-3346
▁(24	-3347
▁Mkutano	-3348
▁she	-3349
▁binadamu	-3350
Ni	-3351
▁24,	-3352
ors	-3353
▁ak	-3354
▁nya	-3355
ongozo	-3356
reaking	-3357
tainment	-3358
▁vyombo	-3359
▁SC	-3360
▁Pty	-3361
▁11,	-3362
undu	-3363
hrir	-3364
▁kufikia	-3365
▁29,	-3366
LL	-3367
▁759)	-3368
▁Roho	-3369
▁HTML	-3370
▁sifa	-3371
ACN	-3372
LEA	-3373
MIA	-3374
Tube	-3375
ANZA	-3376
ading	-3377
▁Kanisa	-3378
LIWA	-3379
DHA	-3380
▁Pub	-3381
rds	-3382
13	-3383
▁Neno	-3384
▁OF	-3385
▁Comm	-3386
kodi	-3387
JU	-3388
▁Ndi	-3389
▁Micro	-3390
pon	-3391
▁MCH	-3392
▁been	-3393
ishaji	-3394
▁kuung	-3395
▁Ly	-3396
▁pekee	-3397
▁Kum	-3398
van	-3399
▁Hizb	-3400
late	-3401
▁tabia	-3402
MP	-3403
peleka	-3404
▁---	-3405
pro	-3406
▁Mtu	-3407
▁hos	-3408
LIMU	-3409
▁zabuni	-3410
erehe	-3411
▁WordP	-3412
jabu	-3413
▁Your	-3414
▁ametoa	-3415
▁miezi	-3416
wele	-3417
umani	-3418
ced	-3419
inti	-3420
▁Angalia	-3421
▁Raila	-3422
76	-3423
▁bet	-3424
▁umri	-3425
▁WE	-3426
▁Matokeo	-3427
▁Radio	-3428
▁YouTube	-3429
▁Nia	-3430
▁Mus	-3431
liza	-3432
▁viwango	-3433
▁chu	-3434
▁ndoa	-3435
▁ataka	-3436
▁haja	-3437
▁Baba	-3438
▁kule	-3439
▁199	-3440
zimi	-3441
dhara	-3442
▁kituo	-3443
pili	-3444
▁Fri	-3445
▁best	-3446
kufu	-3447
▁At	-3448
ersion	-3449
DIO	-3450
▁mke	-3451
fupi	-3452
▁Sun	-3453
▁17,	-3454
▁utu	-3455
mar	-3456
▁gharama	-3457
▁over	-3458
WANA	-3459
▁sauti	-3460
▁uja	-3461
jijini	-3462
▁16,	-3463
▁Kuingia	-3464
creen	-3465
ais	-3466
0000	-3467
▁Mawa	-3468
Cha	-3469
reat	-3470
ssan	-3471
4.	-3472
irobi	-3473
▁(14)	-3474
▁What	-3475
inge	-3476
IDI	-3477
▁9,	-3478
lication	-3479
▁vinavyo	-3480
▁faida	-3481
USD	-3482
▁how	-3483
▁Watanzania	-3484
▁zako	-3485
▁FC	-3486
roup	-3487
▁madini	-3488
▁Timu	-3489
gistered	-3490
▁word	-3491
nia	-3492
kofi	-3493
▁removed	-3494
▁vyote	-3495
▁Isra	-3496
▁Mahali	-3497
▁2009	-3498
zamo	-3499
▁Moja	-3500
▁shilingi	-3501
zalishaji	-3502
muhimu	-3503
▁Uku	-3504
lami	-3505
kopo	-3506
▁20,	-3507
▁League	-3508
ell	-3509
88	-3510
▁Mapinduzi	-3511
cer	-3512
ulo	-3513
▁hatari	-3514
hati	-3515
▁(10)	-3516
▁nga	-3517
atibabu	-3518
▁kupunguza	-3519
▁13,	-3520
▁Kompyuta	-3521
biwa	-3522
▁India	-3523
kizo	-3524
im	-3525
▁ziara	-3526
▁25,	-3527
▁Aidha	-3528
▁15,	-3529
▁CU	-3530
▁kasi	-3531
▁Unaweza	-3532
done	-3533
CHO	-3534
▁Mbo	-3535
faransa	-3536
panga	-3537
▁Jose	-3538
▁Chanzo	-3539
ener	-3540
▁Ligi	-3541
▁x	-3542
ump	-3543
▁ombi	-3544
▁ski	-3545
udhu	-3546
▁HO	-3547
▁Project	-3548
▁rais	-3549
▁Stars	-3550
▁Ayo	-3551
amano	-3552
▁Kin	-3553
RT	-3554
work	-3555
▁Chumba	-3556
75	-3557
num	-3558
▁0)	-3559
▁ulinzi	-3560
MS	-3561
tengeneza	-3562
janja	-3563
▁linalo	-3564
ortugu	-3565
PL	-3566
inyanga	-3567
▁Advertisement	-3568
▁Kia	-3569
ip	-3570
▁Moro	-3571
zindua	-3572
▁safari	-3573
▁kikubwa	-3574
▁nita	-3575
▁Kikwe	-3576
tim	-3577
▁Ban	-3578
▁Aug	-3579
sisiti	-3580
▁MAKA	-3581
bika	-3582
▁Our	-3583
!!!!	-3584
rudi	-3585
ongezeka	-3586
▁iliyopita	-3587
▁wateja	-3588
▁kutumika	-3589
▁utekelezaji	-3590
▁mafanikio	-3591
Sh	-3592
▁Leave	-3593
jito	-3594
▁Ev	-3595
▁Nairobi	-3596
▁fo	-3597
66	-3598
ue	-3599
▁mana	-3600
▁ge	-3601
TER	-3602
▁Mal	-3603
▁World	-3604
gaji	-3605
hamini	-3606
▁wafanyakazi	-3607
▁miongoni	-3608
▁Benki	-3609
▁kujisajili	-3610
▁program	-3611
▁kure	-3612
▁yenu	-3613
▁Nina	-3614
▁tas	-3615
▁Tweet	-3616
/18	-3617
▁Business	-3618
uliwa	-3619
ataka	-3620
▁thro	-3621
▁alivyo	-3622
▁Ajira	-3623
▁MWA	-3624
tails	-3625
juma	-3626
▁Qur	-3627
kin	-3628
kes	-3629
lala	-3630
▁kushu	-3631
▁nia	-3632
ghari	-3633
list	-3634
fugo	-3635
fany	-3636
tuba	-3637
ENZI	-3638
▁Tahrir	-3639
......	-3640
▁Uingereza	-3641
▁Baadhi	-3642
ARI	-3643
▁chanzo	-3644
▁sy	-3645
▁Makamu	-3646
mbaji	-3647
my	-3648
rg	-3649
KT	-3650
▁How	-3651
ukumu	-3652
▁mahitaji	-3653
▁Hadi	-3654
▁₹	-3655
RIKALI	-3656
fadhali	-3657
▁mwanzo	-3658
▁wakuu	-3659
ep	-3660
▁chake	-3661
▁Kituo	-3662
14	-3663
▁14,	-3664
▁WordPress	-3665
▁Mad	-3666
Makofi	-3667
▁umma	-3668
▁Nini	-3669
▁sawia	-3670
▁wadau	-3671
formation	-3672
18	-3673
▁good	-3674
▁mitandao	-3675
▁uma	-3676
▁Niajiri	-3677
▁amewa	-3678
▁kundi	-3679
rid	-3680
▁Old	-3681
mb	-3682
▁City	-3683
▁Par	-3684
▁7,	-3685
▁Muda	-3686
gogoro	-3687
kilishi	-3688
2,	-3689
▁21,	-3690
ANDA	-3691
3.	-3692
str	-3693
▁Hivyo	-3694
▁AFYA	-3695
▁Wanawake	-3696
▁Hassan	-3697
▁Game	-3698
▁FM	-3699
▁22,	-3700
ood	-3701
subu	-3702
atur	-3703
ches	-3704
▁}	-3705
▁Kumbu	-3706
mesahau	-3707
▁Mpango	-3708
▁kauli	-3709
▁Iran	-3710
esearch	-3711
tumiwa	-3712
ENDE	-3713
▁tum	-3714
mit	-3715
fundisho	-3716
▁furaha	-3717
▁Ste	-3718
▁kuleta	-3719
▁Indone	-3720
▁waandishi	-3721
▁Soka	-3722
rafu	-3723
▁Int	-3724
▁VYO	-3725
▁Nimesahau	-3726
/22	-3727
▁kita	-3728
/23	-3729
YU	-3730
cel	-3731
ista	-3732
▁Maombi	-3733
Sto	-3734
▁SEO	-3735
▁kuweza	-3736
▁Linked	-3737
Mi	-3738
▁ugonjwa	-3739
▁mtafsiri	-3740
▁Kikwete	-3741
▁Mk	-3742
▁qu	-3743
▁sp	-3744
▁Mazingira	-3745
ktari	-3746
utes	-3747
alumu	-3748
latnum	-3749
▁taasisi	-3750
elancers	-3751
▁7.	-3752
▁(20)	-3753
▁haku	-3754
cia	-3755
▁Bur	-3756
udhui	-3757
PT	-3758
▁they	-3759
▁kifo	-3760
▁SERIKALI	-3761
shion	-3762
▁kima	-3763
ajiri	-3764
rio	-3765
▁tano	-3766
ESU	-3767
zungumzia	-3768
▁--	-3769
las	-3770
▁Mali	-3771
unuzi	-3772
▁NO	-3773
▁people	-3774
tihani	-3775
subuhi	-3776
▁Kusikiliza	-3777
jumu	-3778
▁mbinu	-3779
baini	-3780
▁under	-3781
?,	-3782
▁akam	-3783
▁ushindi	-3784
ship	-3785
▁ulimwengu	-3786
▁28,	-3787
▁mzuri	-3788
▁Mwalimu	-3789
/17	-3790
▁pers	-3791
binafsi	-3792
▁mal	-3793
▁Chuo	-3794
onesha	-3795
▁Nili	-3796
▁uwanja	-3797
▁maha	-3798
SILI	-3799
ifadhi	-3800
▁19,	-3801
▁Hivi	-3802
lam	-3803
istan	-3804
TAKA	-3805
▁chache	-3806
▁African	-3807
▁nne	-3808
▁Wata	-3809
/15	-3810
Se	-3811
latnumz	-3812
uts	-3813
maliza	-3814
RD	-3815
▁Faragha	-3816
▁mad	-3817
??	-3818
▁klabu	-3819
kulu	-3820
ums	-3821
▁very	-3822
▁nani	-3823
ika	-3824
CC	-3825
insia	-3826
▁developer	-3827
▁Education	-3828
rajiwa	-3829
▁uko	-3830
▁Peter	-3831
▁kud	-3832
▁fiel	-3833
▁ACT	-3834
tta	-3835
▁macho	-3836
ram	-3837
limw	-3838
▁saba	-3839
Tanzania	-3840
wezekana	-3841
lex	-3842
pigwa	-3843
geria	-3844
koba	-3845
▁kuboresha	-3846
kazini	-3847
aneti	-3848
▁mata	-3849
takayo	-3850
▁Colle	-3851
Kis	-3852
▁ingia	-3853
▁pm	-3854
▁uhaki	-3855
▁utaratibu	-3856
lipa	-3857
▁mazungumzo	-3858
pima	-3859
CHAGU	-3860
erumani	-3861
soko	-3862
▁Pitia	-3863
ungaji	-3864
jeshi	-3865
fuku	-3866
fanyabiashara	-3867
▁watumishi	-3868
fia	-3869
Script	-3870
▁kutekeleza	-3871
vid	-3872
▁Hifadhi	-3873
▁wap	-3874
▁badala	-3875
daku	-3876
▁mchakato	-3877
▁Gos	-3878
▁mab	-3879
▁Microsoft	-3880
illa	-3881
▁8,	-3882
▁sec	-3883
RIS	-3884
CK	-3885
▁soka	-3886
say	-3887
▁Zinazo	-3888
▁kar	-3889
▁yule	-3890
ujanja	-3891
▁Mich	-3892
▁jumla	-3893
ondolewa	-3894
ens	-3895
▁kusaidia	-3896
▁80	-3897
▁salama	-3898
sika	-3899
▁hire	-3900
▁Spe	-3901
shambu	-3902
▁Breaking	-3903
kezwa	-3904
▁anaweza	-3905
▁kucheza	-3906
beba	-3907
Ki	-3908
▁(23)	-3909
▁back	-3910
▁Wenye	-3911
urce	-3912
▁Bora	-3913
epu	-3914
▁>>	-3915
▁Gi	-3916
▁bilioni	-3917
file	-3918
▁MATO	-3919
nel	-3920
julikana	-3921
simu	-3922
HUSU	-3923
▁ikiwemo	-3924
▁there	-3925
▁Mfumo	-3926
/19	-3927
▁Live	-3928
▁Alisema	-3929
▁kuishi	-3930
▁may	-3931
▁Bra	-3932
▁baba	-3933
▁(28	-3934
kadi	-3935
▁KO	-3936
▁kuangalia	-3937
GANYI	-3938
bel	-3939
▁ben	-3940
ora	-3941
▁kulinda	-3942
▁qua	-3943
▁Shinyanga	-3944
rick	-3945
Kiswahili	-3946
▁aliyekuwa	-3947
▁KUWA	-3948
▁alijibu	-3949
unc	-3950
▁Hatua	-3951
cent	-3952
▁yeyote	-3953
7.	-3954
emap	-3955
/13	-3956
jea	-3957
70	-3958
rie	-3959
indow	-3960
▁siasa	-3961
LISI	-3962
elegram	-3963
▁inavyo	-3964
▁dakika	-3965
▁humo	-3966
tel	-3967
▁siyo	-3968
▁iPhone	-3969
."	-3970
sisitiza	-3971
▁anasema	-3972
▁18,	-3973
disha	-3974
▁—	-3975
emb	-3976
▁mk	-3977
▁Help	-3978
simama	-3979
▁Global	-3980
▁down	-3981
▁zingine	-3982
patia	-3983
▁mechi	-3984
▁Log	-3985
▁Ulimw	-3986
▁Taasisi	-3987
▁Mtanzania	-3988
▁Sana	-3989
ii	-3990
▁isiyo	-3991
kamilika	-3992
lezi	-3993
▁uongozi	-3994
cs	-3995
▁ZAIDI	-3996
IASA	-3997
▁posts	-3998
sajili	-3999
/27	-4000
▁ndiye	-4001
zao	-4002
▁Recent	-4003
back	-4004
35	-4005
▁mapenzi	-4006
▁kikao	-4007
▁viwanda	-4008
▁kumi	-4009
▁ZILI	-4010
▁Select	-4011
taa	-4012
ungua	-4013
▁Hali	-4014
sal	-4015
/2016	-4016
fied	-4017
▁nyi	-4018
▁Kag	-4019
▁vilivyo	-4020
▁Zili	-4021
hada	-4022
▁prof	-4023
▁Duniani	-4024
bitisha	-4025
▁Basi	-4026
adhim	-4027
jaribu	-4028
▁ujumla	-4029
lack	-4030
tur	-4031
▁comple	-4032
▁kodi	-4033
▁wak	-4034
▁●	-4035
chote	-4036
▁Lyrics	-4037
▁kupiga	-4038
/26	-4039
▁utaka	-4040
/14	-4041
▁31,	-4042
▁yale	-4043
▁MCHAN	-4044
▁Entertainment	-4045
TED	-4046
atiba	-4047
ky	-4048
gg	-4049
▁majina	-4050
▁35	-4051
▁Trans	-4052
ect	-4053
▁dini	-4054
gezo	-4055
▁year	-4056
yani	-4057
▁Aliye	-4058
▁form	-4059
kofu	-4060
mavu	-4061
▁Bei	-4062
▁tar	-4063
▁msimu	-4064
CHU	-4065
AM	-4066
jui	-4067
▁enter	-4068
▁VITA	-4069
▁mwenyeji	-4070
▁AJI	-4071
64	-4072
▁mimba	-4073
pens	-4074
▁high	-4075
emu	-4076
▁hoja	-4077
▁akili	-4078
olu	-4079
ml	-4080
▁ofisi	-4081
▁Wikipedia	-4082
/21	-4083
▁Sal	-4084
esday	-4085
ray	-4086
ness	-4087
SHI	-4088
bitishwa	-4089
tini	-4090
eneja	-4091
▁(25)	-4092
▁halisi	-4093
hai	-4094
/28	-4095
▁JavaScript	-4096
stra	-4097
KIO	-4098
▁ZILIZO	-4099
andikwa	-4100
▁require	-4101
▁kuni	-4102
▁Ngu	-4103
çais	-4104
▁yaani	-4105
men	-4106
/25	-4107
kt	-4108
ancel	-4109
UNGE	-4110
▁wenyewe	-4111
▁Idara	-4112
▁«	-4113
bada	-4114
▁mawasiliano	-4115
▁write	-4116
/24	-4117
/16	-4118
▁Ze	-4119
raja	-4120
▁anay	-4121
vuma	-4122
blog	-4123
▁Sitemap	-4124
▁utafiti	-4125
▁WAN	-4126
▁kukabili	-4127
dates	-4128
▁zisi	-4129
▁Work	-4130
jumaa	-4131
vin	-4132
ap	-4133
▁world	-4134
▁expert	-4135
▁through	-4136
kataa	-4137
bii	-4138
▁Cancel	-4139
GANYIKO	-4140
ewji	-4141
▁Shule	-4142
vua	-4143
▁videos	-4144
ise	-4145
▁account	-4146
sis	-4147
tra	-4148
▁rangi	-4149
▁find	-4150
WN	-4151
▁yata	-4152
URI	-4153
fanyia	-4154
▁Ndani	-4155
▁company	-4156
tuko	-4157
INE	-4158
▁sarafu	-4159
▁makazi	-4160
orodha	-4161
kabidhi	-4162
tors	-4163
▁MBA	-4164
▁follow	-4165
vunja	-4166
▁Apple	-4167
▁Mamlaka	-4168
▁kutafuta	-4169
▁amri	-4170
atoa	-4171
vaa	-4172
▁Oro	-4173
▁et	-4174
▁cus	-4175
▁said	-4176
▁pr	-4177
/29	-4178
▁Kig	-4179
Si	-4180
▁MCHANGANYIKO	-4181
▁shirika	-4182
miliki	-4183
▁mgeni	-4184
sababisha	-4185
lele	-4186
▁chi	-4187
pañ	-4188
▁mare	-4189
▁(19	-4190
uza	-4191
ziwa	-4192
▁vituo	-4193
bet	-4194
▁JUMA	-4195
vuvi	-4196
pas	-4197
16	-4198
▁uba	-4199
bra	-4200
kawa	-4201
dayo	-4202
elewa	-4203
▁Sauti	-4204
▁wimbo	-4205
▁Youtube	-4206
wassa	-4207
jani	-4208
▁provide	-4209
▁wanaweza	-4210
ational	-4211
zal	-4212
▁Jumuiya	-4213
MBI	-4214
▁Utangazaji	-4215
Re	-4216
▁Development	-4217
urity	-4218
hadi	-4219
toaji	-4220
TAA	-4221
▁minutes	-4222
sian	-4223
yc	-4224
▁Page	-4225
▁wenza	-4226
cing	-4227
▁Mwenyeji	-4228
▁Tangaza	-4229
▁ushirikiano	-4230
▁stu	-4231
News	-4232
▁COVID	-4233
▁YESU	-4234
▁Hos	-4235
▁kampeni	-4236
▁Miradi	-4237
unity	-4238
chool	-4239
▁well	-4240
▁Service	-4241
binguni	-4242
changanyiko	-4243
▁window	-4244
Te	-4245
▁kumbu	-4246
▁Kupata	-4247
▁Orodha	-4248
mes	-4249
▁set	-4250
lation	-4251
▁Mwandishi	-4252
▁Paul	-4253
KEO	-4254
▁Close	-4255
amali	-4256
mon	-4257
▁Zilizo	-4258
VA	-4259
▁mdogo	-4260
▁International	-4261
pit	-4262
▁Sec	-4263
▁now	-4264
▁kuzuia	-4265
/2022	-4266
ats	-4267
sident	-4268
▁CUF	-4269
graph	-4270
▁Category	-4271
▁list	-4272
▁mkataba	-4273
▁zita	-4274
▁col	-4275
▁mapema	-4276
ghulikia	-4277
▁uhusiano	-4278
▁uchunguzi	-4279
▁Admin	-4280
guu	-4281
▁Sayansi	-4282
ARIFA	-4283
des	-4284
rs	-4285
▁If	-4286
▁Uki	-4287
waji	-4288
▁see	-4289
onya	-4290
▁ser	-4291
▁5.0	-4292
▁Madini	-4293
▁Ham	-4294
▁orodha	-4295
ulti	-4296
pendwa	-4297
▁hadithi	-4298
▁(26	-4299
zalendo	-4300
▁Cent	-4301
leni	-4302
▁Mtoto	-4303
To	-4304
alam	-4305
jadili	-4306
▁Od	-4307
▁Ujumbe	-4308
ono	-4309
▁Juu	-4310
elekea	-4311
▁Vit	-4312
▁Kutu	-4313
rudani	-4314
▁Older	-4315
▁kime	-4316
chache	-4317
▁Writing	-4318
▁×	-4319
lardayo	-4320
▁(21	-4321
ditions	-4322
▁Uchambuzi	-4323
▁facebook	-4324
▁Full	-4325
funze	-4326
fisha	-4327
▁raia	-4328
▁Car	-4329
fundi	-4330
base	-4331
▁Miaka	-4332
ker	-4333
bri	-4334
▁//	-4335
▁Sign	-4336
▁Indonesia	-4337
▁ELIMU	-4338
▁kitaifa	-4339
essional	-4340
▁Wabunge	-4341
▁Mka	-4342
▁BWANA	-4343
udi	-4344
▁Poli	-4345
hudhu	-4346
▁ajira	-4347
▁into	-4348
itto	-4349
ah	-4350
otes	-4351
▁prote	-4352
▁nj	-4353
▁published	-4354
▁MATOKEO	-4355
▁burudani	-4356
rah	-4357
▁(15	-4358
▁should	-4359
▁aliwa	-4360
▁wasio	-4361
▁www	-4362
▁just	-4363
▁(27)	-4364
48	-4365
lass	-4366
del	-4367
▁Ikiwa	-4368
▁uhakika	-4369
Ramani	-4370
▁chochote	-4371
zoefu	-4372
▁(16)	-4373
中文	-4374
oko	-4375
▁Rasilimali	-4376
ghairi	-4377
kisema	-4378
▁Trump	-4379
▁mahakama	-4380
▁Muziki	-4381
mua	-4382
▁ON	-4383
wser	-4384
▁Stories	-4385
1.	-4386
An	-4387
husisha	-4388
▁THE	-4389
▁SIASA	-4390
oot	-4391
OK	-4392
ST	-4393
▁kulingana	-4394
hiri	-4395
▁bid	-4396
cture	-4397
▁ag	-4398
amosi	-4399
endeleza	-4400
▁main	-4401
▁hospitali	-4402
jengo	-4403
▁60	-4404
▁Lowassa	-4405
▁Februari	-4406
▁than	-4407
▁AL	-4408
lus	-4409
▁MKO	-4410
▁Mbeya	-4411
gital	-4412
▁APK	-4413
ser	-4414
▁wow	-4415
▁Ir	-4416
▁Kata	-4417
▁KUHUSU	-4418
▁Mobile	-4419
▁DE	-4420
▁SIKU	-4421
▁2007	-4422
▁create	-4423
daiwa	-4424
,"	-4425
▁kanuni	-4426
zation	-4427
neo	-4428
gizo	-4429
▁Umma	-4430
hudhuria	-4431
▁kushirikiana	-4432
▁team	-4433
▁ngazi	-4434
▁bongo	-4435
▁MAK	-4436
▁Em	-4437
zinduzi	-4438
▁user	-4439
▁UM	-4440
▁kulia	-4441
tory	-4442
▁Sisi	-4443
paa	-4444
▁kwako	-4445
▁magazeti	-4446
rembo	-4447
▁toka	-4448
RC	-4449
▁DM	-4450
▁mawazo	-4451
▁mazuri	-4452
esabu	-4453
▁isi	-4454
roni	-4455
▁yan	-4456
▁Kijamii	-4457
▁ALI	-4458
rand	-4459
▁photo	-4460
REA	-4461
▁Ijumaa	-4462
▁USA	-4463
rt	-4464
▁freelancer	-4465
yuo	-4466
ridhi	-4467
▁asubuhi	-4468
▁maudhui	-4469
ambuki	-4470
shaji	-4471
▁software	-4472
▁TFF	-4473
▁Wananchi	-4474
uawa	-4475
▁Amani	-4476
▁Vifaa	-4477
▁kutosha	-4478
▁tathmini	-4479
▁(24)	-4480
5.	-4481
JE	-4482
rik	-4483
DEMA	-4484
▁wanaume	-4485
undom	-4486
▁God	-4487
▁Visi	-4488
mbizi	-4489
▁maswali	-4490
anne	-4491
▁BURU	-4492
▁search	-4493
▁instagram	-4494
▁el	-4495
▁Mtakatifu	-4496
----------------	-4497
▁mbo	-4498
kampuni	-4499
▁nyimbo	-4500
▁Mag	-4501
▁nayo	-4502
▁kutazama	-4503
▁MWENYE	-4504
▁Ulimwengu	-4505
sist	-4506
chaguliwa	-4507
▁SALA	-4508
▁4.9	-4509
ming	-4510
▁Offi	-4511
staafu	-4512
-30	-4513
▁Cor	-4514
▁wowote	-4515
TEN	-4516
▁password	-4517
ilio	-4518
twa	-4519
inisha	-4520
86	-4521
▁DI	-4522
▁Bodi	-4523
ras	-4524
▁Mtandaoni	-4525
fuatilia	-4526
undombinu	-4527
ual	-4528
fugaji	-4529
enzi	-4530
▁Cam	-4531
▁ripoti	-4532
▁code	-4533
▁WALIO	-4534
▁Newer	-4535
▁Zitto	-4536
▁roho	-4537
uluhu	-4538
▁Zabuni	-4539
▁services	-4540
TAIFA	-4541
▁mnamo	-4542
▁Song	-4543
▁working	-4544
▁Eneo	-4545
pot	-4546
zindu	-4547
rasi	-4548
ee	-4549
▁wataka	-4550
▁kuima	-4551
▁mba	-4552
▁Lis	-4553
▁alama	-4554
ilayani	-4555
▁kute	-4556
jayo	-4557
▁sub	-4558
▁please	-4559
▁graphic	-4560
jue	-4561
▁mamlaka	-4562
ide	-4563
▁Jimbo	-4564
▁oper	-4565
RY	-4566
oks	-4567
atikanaji	-4568
▁zisizo	-4569
▁ubora	-4570
▁wanachama	-4571
▁Ikulu	-4572
laha	-4573
wetu	-4574
▁kisiasa	-4575
▁naomba	-4576
”.	-4577
rized	-4578
wed	-4579
▁Bidhaa	-4580
▁wapi	-4581
▁uhuru	-4582
tani	-4583
catego	-4584
▁MATU	-4585
".	-4586
/30	-4587
gwa	-4588
ishati	-4589
17	-4590
▁Pamoja	-4591
▁upatikanaji	-4592
▁baadaye	-4593
hitajika	-4594
▁Kufanya	-4595
▁ub	-4596
ally	-4597
▁upo	-4598
▁Produ	-4599
ktaba	-4600
9.	-4601
▁mataifa	-4602
angwa	-4603
eth	-4604
▁kukaribisha	-4605
kumu	-4606
▁kushoto	-4607
This	-4608
▁(14	-4609
▁sera	-4610
▁Ardhi	-4611
TOA	-4612
tyle	-4613
▁wakulima	-4614
rasia	-4615
riri	-4616
▁Bila	-4617
▁Uandishi	-4618
JIA	-4619
fundisha	-4620
MENT	-4621
ruki	-4622
BWA	-4623
jari	-4624
eshima	-4625
▁Ndo	-4626
▁Mawaziri	-4627
▁kuvu	-4628
▁Desemba	-4629
indano	-4630
▁Member	-4631
ign	-4632
FANYA	-4633
erere	-4634
▁PICHA	-4635
▁article	-4636
▁maalumu	-4637
▁UTA	-4638
▁JO	-4639
gea	-4640
ones	-4641
▁Matumizi	-4642
liki	-4643
▁AS	-4644
▁hala	-4645
▁cli	-4646
▁faili	-4647
ês	-4648
ule	-4649
▁DC	-4650
val	-4651
cum	-4652
-3	-4653
▁MAJ	-4654
RIKI	-4655
enzo	-4656
6.	-4657
▁Maalum	-4658
ingiza	-4659
▁ele	-4660
▁filamu	-4661
12	-4662
▁TANGA	-4663
pimo	-4664
▁Message	-4665
gharibi	-4666
mad	-4667
zoezi	-4668
▁Jumapili	-4669
▁jeshi	-4670
ten	-4671
uda	-4672
▁edi	-4673
ortuguês	-4674
hamia	-4675
▁Amba	-4676
husishwa	-4677
▁Code	-4678
guo	-4679
yle	-4680
▁iko	-4681
kan	-4682
ins	-4683
▁kisasa	-4684
par	-4685
▁uzalishaji	-4686
atiwa	-4687
ffer	-4688
▁Ah	-4689
▁kukaa	-4690
▁kupokea	-4691
pel	-4692
▁Ujuzi	-4693
lalami	-4694
Masha	-4695
subiri	-4696
▁kiongozi	-4697
umiwa	-4698
▁vitendo	-4699
▁alim	-4700
gal	-4701
rac	-4702
▁salaam	-4703
▁Powered	-4704
▁Tanga	-4705
▁uweze	-4706
arn	-4707
▁mipango	-4708
▁wav	-4709
▁Use	-4710
▁(29)	-4711
▁iwe	-4712
▁historia	-4713
ingida	-4714
▁Mtendaji	-4715
▁kufunga	-4716
DF	-4717
▁Like	-4718
engenezaji	-4719
▁Azam	-4720
shambulia	-4721
sw	-4722
▁Ag	-4723
▁wachezaji	-4724
lili	-4725
▁unge	-4726
uman	-4727
▁Local	-4728
▁umuhimu	-4729
▁Geor	-4730
▁these	-4731
▁upya	-4732
maye	-4733
etwork	-4734
the	-4735
▁Jumamosi	-4736
taja	-4737
▁kuunganisha	-4738
▁(31	-4739
▁Ndege	-4740
PU	-4741
okrasia	-4742
kri	-4743
LOAD	-4744
▁anga	-4745
▁mauaji	-4746
▁husika	-4747
ream	-4748
laika	-4749
kona	-4750
▁DAR	-4751
▁NMB	-4752
▁uweke	-4753
▁Makundi	-4754
JINI	-4755
fuatayo	-4756
▁(15)	-4757
rini	-4758
43	-4759
halifu	-4760
LAYA	-4761
▁Walio	-4762
▁Urusi	-4763
-09	-4764
▁Wed	-4765
WNLOAD	-4766
▁clo	-4767
▁ipo	-4768
▁Kenyatta	-4769
chia	-4770
zinduliwa	-4771
dul	-4772
INGI	-4773
▁Mwanamke	-4774
▁gha	-4775
Hr	-4776
▁TI	-4777
dom	-4778
▁UNA	-4779
▁imekuwa	-4780
▁Sir	-4781
TC	-4782
▁API	-4783
▁BURUDANI	-4784
buri	-4785
haba	-4786
▁Mb	-4787
▁kiny	-4788
sea	-4789
▁risasi	-4790
▁Toleo	-4791
gaidi	-4792
▁Maana	-4793
▁reply	-4794
▁kuacha	-4795
▁link	-4796
▁mapato	-4797
▁Mbali	-4798
kondari	-4799
▁Intaneti	-4800
▁kujibu	-4801
▁when	-4802
▁Nor	-4803
▁kali	-4804
Kwa	-4805
▁Uislamu	-4806
pañol	-4807
ripoti	-4808
▁Morogoro	-4809
▁its	-4810
▁East	-4811
kw	-4812
▁marketing	-4813
anze	-4814
chua	-4815
▁lita	-4816
▁mtandaoni	-4817
Li	-4818
▁kuzingatia	-4819
▁kid	-4820
▁mashindano	-4821
▁Majaliwa	-4822
pri	-4823
▁mume	-4824
EST	-4825
▁File	-4826
▁masharti	-4827
kononi	-4828
wambia	-4829
▁Char	-4830
!!!	-4831
chukuliwa	-4832
views	-4833
▁Social	-4834
▁masomo	-4835
▁viungo	-4836
▁MHE	-4837
▁browser	-4838
▁High	-4839
ure	-4840
▁chumba	-4841
elezea	-4842
lub	-4843
knokona	-4844
shiki	-4845
▁urais	-4846
ufa	-4847
ses	-4848
▁(34)	-4849
▁San	-4850
Fara	-4851
▁Kut	-4852
▁Telegram	-4853
▁Aina	-4854
kamani	-4855
▁Kutuhusu	-4856
.,	-4857
▁kuonyesha	-4858
▁public	-4859
▁Vijana	-4860
▁malengo	-4861
▁Jari	-4862
▁Kiingereza	-4863
▁Singida	-4864
MII	-4865
rithi	-4866
por	-4867
Chagua	-4868
▁em	-4869
MAN	-4870
▁DMCA	-4871
Fi	-4872
▁wazazi	-4873
ged	-4874
jam	-4875
▁38	-4876
acha	-4877
Masharti	-4878
▁home	-4879
▁FOR	-4880
▁makosa	-4881
▁matibabu	-4882
▁kanisa	-4883
▁(23	-4884
shika	-4885
▁vitabu	-4886
sung	-4887
▁Management	-4888
▁media	-4889
Habari	-4890
ley	-4891
▁Ufaransa	-4892
▁kip	-4893
▁kwao	-4894
kufa	-4895
▁(28)	-4896
oney	-4897
shop	-4898
▁Sub	-4899
firisha	-4900
vana	-4901
thing	-4902
▁ushauri	-4903
▁kudhibiti	-4904
▁Nafasi	-4905
▁application	-4906
dhamini	-4907
▁Ukurasa	-4908
lango	-4909
athiri	-4910
▁Iliyo	-4911
▁100%	-4912
▁unayo	-4913
▁Today	-4914
▁Bajeti	-4915
etro	-4916
▁ph	-4917
kamatwa	-4918
▁kuandika	-4919
Faragha	-4920
▁Amesema	-4921
KiswahiliChagua	-4922
rian	-4923
▁AWA	-4924
▁quality	-4925
keti	-4926
▁faragha	-4927
▁Kim	-4928
umber	-4929
▁kujifunza	-4930
▁protected	-4931
▁Wasi	-4932
▁CHADEMA	-4933
wasi	-4934
▁With	-4935
▁Health	-4936
pendekezwa	-4937
siriamali	-4938
▁2006	-4939
TOTO	-4940
▁Advertise	-4941
▁Disc	-4942
▁int	-4943
▁Med	-4944
omwa	-4945
▁exp	-4946
▁Mr	-4947
hudia	-4948
gina	-4949
▁check	-4950
▁twitter	-4951
▁details	-4952
lah	-4953
▁Yake	-4954
vya	-4955
Mo	-4956
▁unacho	-4957
script	-4958
▁ajali	-4959
bariki	-4960
▁information	-4961
▁Kal	-4962
▁Wageni	-4963
rent	-4964
▁Was	-4965
▁akim	-4966
jaro	-4967
▁Kai	-4968
ice	-4969
▁Mapenzi	-4970
▁Filamu	-4971
▁juhudi	-4972
▁Yeye	-4973
▁(26)	-4974
ruhusi	-4975
kamilisha	-4976
▁MS	-4977
teuzi	-4978
▁apps	-4979
quired	-4980
عر	-4981
▁Ura	-4982
amaki	-4983
▁Total	-4984
▁Articles	-4985
▁Ur	-4986
uthor	-4987
▁Mitandao	-4988
30-	-4989
▁ES	-4990
erry	-4991
▁Gre	-4992
▁tuzo	-4993
cast	-4994
▁YAKO	-4995
▁every	-4996
dika	-4997
cription	-4998
▁Nyerere	-4999
▁her	-5000
▁(18)	-5001
▁wito	-5002
▁Views	-5003
▁KAMA	-5004
▁Hati	-5005
▁Jumanne	-5006
▁ndipo	-5007
▁Kiislamu	-5008
▁ft	-5009
▁safi	-5010
▁kuch	-5011
▁Premi	-5012
▁part	-5013
▁INA	-5014
▁Utafiti	-5015
89	-5016
▁Joseph	-5017
▁Jijini	-5018
▁Msi	-5019
▁War	-5020
▁vyama	-5021
Ex	-5022
▁show	-5023
▁Mhariri	-5024
categorized	-5025
ration	-5026
tures	-5027
▁usha	-5028
sudi	-5029
Bo	-5030
▁Pat	-5031
▁many	-5032
wazi	-5033
▁onge	-5034
▁most	-5035
▁comm	-5036
lates	-5037
▁MAS	-5038
▁Pwani	-5039
ange	-5040
uro	-5041
gorje	-5042
ONGE	-5043
▁SHA	-5044
▁33	-5045
embea	-5046
ishara	-5047
dhani	-5048
unza	-5049
▁Platnumz	-5050
DIA	-5051
▁kununua	-5052
▁kusi	-5053
anzani	-5054
ereva	-5055
chapishwa	-5056
▁Safari	-5057
▁PRO	-5058
gar	-5059
umb	-5060
▁Tathmini	-5061
anyama	-5062
▁Muhimu	-5063
funi	-5064
▁(17	-5065
▁Mjini	-5066
▁Feed	-5067
zigo	-5068
frika	-5069
▁Mpira	-5070
/2023	-5071
▁Imefungwa	-5072
▁Ara	-5073
▁DOWNLOAD	-5074
post	-5075
umzi	-5076
▁wamekuwa	-5077
▁Afisa	-5078
▁Wake	-5079
udan	-5080
▁System	-5081
versi	-5082
pers	-5083
▁sc	-5084
anishwa	-5085
",	-5086
umaini	-5087
▁kuimarisha	-5088
▁KUU	-5089
manjaro	-5090
▁service	-5091
▁mashine	-5092
▁chuma	-5093
500	-5094
▁file	-5095
tten	-5096
CCM	-5097
onye	-5098
▁uamuzi	-5099
inali	-5100
▁Mzee	-5101
▁sherehe	-5102
Play	-5103
▁Ed	-5104
▁Ishara	-5105
PS	-5106
pekee	-5107
▁watanzania	-5108
▁mhariri	-5109
▁Tur	-5110
▁Fr	-5111
▁sin	-5112
▁kulipa	-5113
eso	-5114
fuatazo	-5115
▁Kaskazini	-5116
▁utawala	-5117
▁IS	-5118
ISHI	-5119
▁LO	-5120
▁Bungeni	-5121
▁Juli	-5122
▁zangu	-5123
pongeza	-5124
▁someone	-5125
▁joto	-5126
dex	-5127
▁WATU	-5128
ering	-5129
▁kuondoa	-5130
jugorje	-5131
▁Conditions	-5132
lands	-5133
Sa	-5134
▁admin	-5135
▁Samsung	-5136
tarajiwa	-5137
zimio	-5138
▁Dawa	-5139
▁Waislamu	-5140
habari	-5141
▁via	-5142
▁makini	-5143
▁build	-5144
▁MAJINA	-5145
▁Archive	-5146
▁Wali	-5147
▁Login	-5148
▁Abu	-5149
▁kurudi	-5150
▁Vitu	-5151
/?	-5152
▁vingine	-5153
▁Dist	-5154
fore	-5155
▁kiuchumi	-5156
▁Meneja	-5157
TANGA	-5158
isasa	-5159
▁Kagera	-5160
▁uwekezaji	-5161
UNA	-5162
▁designer	-5163
▁Utalii	-5164
▁Support	-5165
huda	-5166
▁kadi	-5167
usi	-5168
▁(30)	-5169
▁dola	-5170
▁discus	-5171
ishu	-5172
hawa	-5173
▁Cham	-5174
▁kijiji	-5175
pelekea	-5176
ahidi	-5177
hasa	-5178
▁Last	-5179
▁silaha	-5180
▁Jen	-5181
▁kompyuta	-5182
uk	-5183
▁walimu	-5184
▁Sc	-5185
▁Hizi	-5186
eshaji	-5187
ADA	-5188
▁One	-5189
PM	-5190
sure	-5191
▁Jumatatu	-5192
▁makundi	-5193
llah	-5194
▁kupambana	-5195
▁(11	-5196
▁kuk	-5197
kabili	-5198
saidizi	-5199
▁sites	-5200
NO	-5201
▁HE	-5202
kiri	-5203
▁Kuweka	-5204
▁Mwisho	-5205
letea	-5206
▁Pri	-5207
undua	-5208
gmail	-5209
ink	-5210
ensa	-5211
▁kuelekea	-5212
▁kata	-5213
gy	-5214
▁+0000	-5215
ESA	-5216
200	-5217
La	-5218
sive	-5219
simamo	-5220
▁kukabiliana	-5221
▁watumiaji	-5222
liano	-5223
▁wakimbizi	-5224
▁MAN	-5225
▁nye	-5226
▁Gazeti	-5227
▁Injili	-5228
▁heshima	-5229
▁FE	-5230
Ka	-5231
▁Rus	-5232
▁Allaah	-5233
anada	-5234
▁Cho	-5235
▁AI	-5236
▁kutolewa	-5237
▁kw	-5238
8.	-5239
uzaji	-5240
logu	-5241
▁Version	-5242
onga	-5243
▁Thu	-5244
MANI	-5245
▁kesho	-5246
sanya	-5247
▁Kusa	-5248
moni	-5249
vazi	-5250
▁Group	-5251
umbi	-5252
▁tech	-5253
▁fanpop	-5254
pr	-5255
عرب	-5256
▁Wate	-5257
▁KUTOKA	-5258
undwa	-5259
▁kitanda	-5260
room	-5261
▁shida	-5262
▁Wakuu	-5263
▁magonjwa	-5264
endeshaji	-5265
BS	-5266
posal	-5267
utsch	-5268
▁majukumu	-5269
angazwa	-5270
ELE	-5271
▁Misri	-5272
▁made	-5273
▁Tafadhali	-5274
▁Sudan	-5275
pakia	-5276
▁Vya	-5277
▁kote	-5278
▁Of	-5279
ambaza	-5280
▁8.	-5281
▁msa	-5282
▁wasanii	-5283
▁Apr	-5284
jumuisha	-5285
▁Mafundisho	-5286
emplates	-5287
dh	-5288
▁AyoTV	-5289
inywa	-5290
▁Haya	-5291
▁Nakala	-5292
▁Kima	-5293
ctions	-5294
katili	-5295
ruhusu	-5296
▁Mafunzo	-5297
name	-5298
▁AUD	-5299
▁Mashindano	-5300
uel	-5301
▁Kanda	-5302
▁Syria	-5303
date	-5304
▁Punde	-5305
▁Mechi	-5306
bwe	-5307
▁II	-5308
▁KUJI	-5309
▁Kupitia	-5310
lash	-5311
▁utendaji	-5312
▁pri	-5313
▁Ama	-5314
▁ishara	-5315
▁SQL	-5316
▁love	-5317
lenga	-5318
loven	-5319
▁Unapania	-5320
▁Job	-5321
zunguka	-5322
▁Maneno	-5323
1,	-5324
▁Lipwa	-5325
▁Kanuni	-5326
▁milele	-5327
▁KAZI	-5328
sions	-5329
▁Suluhu	-5330
▁kujiunga	-5331
AND	-5332
▁Wetu	-5333
eder	-5334
▁Out	-5335
ross	-5336
▁و	-5337
▁zifuatazo	-5338
llu	-5339
BlogThis	-5340
gawa	-5341
ий	-5342
▁00	-5343
▁wanyama	-5344
tisha	-5345
▁TwitterShare	-5346
▁Awards	-5347
▁(25	-5348
▁Wanafunzi	-5349
▁ThisBlogThis	-5350
▁Over	-5351
Opens	-5352
KING	-5353
▁Nigeria	-5354
▁Kik	-5355
▁utakuwa	-5356
media	-5357
▁Hospitali	-5358
endelee	-5359
▁kuanzisha	-5360
▁Vo	-5361
rk	-5362
▁mawili	-5363
▁Medjugorje	-5364
▁taratibu	-5365
fest	-5366
▁→	-5367
zetini	-5368
▁Wh	-5369
▁sham	-5370
▁Jumatano	-5371
▁32	-5372
ovu	-5373
enguni	-5374
▁rafiki	-5375
ande	-5376
DC	-5377
▁MAA	-5378
▁professional	-5379
rajia	-5380
▁Lissu	-5381
▁Kina	-5382
▁kik	-5383
▁President	-5384
▁info	-5385
demark	-5386
ulana	-5387
lean	-5388
▁kumbukumbu	-5389
▁zile	-5390
▁Wakenya	-5391
risti	-5392
▁Historia	-5393
CHAGUZI	-5394
▁MAHA	-5395
kistan	-5396
▁yasiyo	-5397
of	-5398
fafanua	-5399
rict	-5400
▁Mac	-5401
▁lenye	-5402
34	-5403
▁Utawala	-5404
jeo	-5405
▁Pili	-5406
bility	-5407
▁Ob	-5408
▁social	-5409
▁kamati	-5410
bab	-5411
▁Nyi	-5412
perien	-5413
▁kuomba	-5414
▁kufa	-5415
tari	-5416
▁nyota	-5417
umivu	-5418
TS	-5419
▁Kumbukumbu	-5420
sihi	-5421
▁Software	-5422
▁wabunge	-5423
▁vijijini	-5424
elekezo	-5425
▁↑	-5426
laimer	-5427
):	-5428
▁Paulo	-5429
istawishi	-5430
▁Mikoa	-5431
urrent	-5432
▁Udaku	-5433
stralia	-5434
▁fun	-5435
vaila	-5436
▁katikati	-5437
39	-5438
amp	-5439
▁Makazi	-5440
▁Mipango	-5441
▁Ukra	-5442
▁Akizungumza	-5443
▁ndoto	-5444
▁mazao	-5445
▁vyema	-5446
▁Mab	-5447
▁Pesa	-5448
▁count	-5449
▁ujuzi	-5450
▁Du	-5451
▁akawa	-5452
KIWA	-5453
▁Nchini	-5454
▁kufanyika	-5455
▁Ft	-5456
td	-5457
elance	-5458
jasiriamali	-5459
▁mikono	-5460
kie	-5461
30-250	-5462
▁Disclaimer	-5463
pigano	-5464
▁apply	-5465
▁mikoa	-5466
▁Pombe	-5467
TY	-5468
▁wapo	-5469
▁darasa	-5470
atis	-5471
▁wakazi	-5472
▁mfanyakazi	-5473
▁registered	-5474
▁Kubuni	-5475
▁Yana	-5476
▁El	-5477
kuwepo	-5478
▁RI	-5479
▁College	-5480
▁kutaka	-5481
aluma	-5482
ending	-5483
▁km	-5484
▁Mfanyakazi	-5485
▁ILI	-5486
▁off	-5487
tle	-5488
pping	-5489
▁Huru	-5490
▁Kikuu	-5491
ults	-5492
▁wadogo	-5493
▁RFI	-5494
▁mg	-5495
▁90	-5496
▁36	-5497
lahi	-5498
▁waweze	-5499
shin	-5500
chek	-5501
onda	-5502
▁Mashine	-5503
him	-5504
mary	-5505
▁kusababisha	-5506
▁Kilimanjaro	-5507
▁Ujerumani	-5508
HALISI	-5509
TANO	-5510
▁nusu	-5511
▁Kiwango	-5512
▁kisheria	-5513
▁import	-5514
xi	-5515
▁download	-5516
▁product	-5517
▁GB	-5518
▁SOMA	-5519
▁SABA	-5520
▁ulikuwa	-5521
▁Mfano	-5522
▁maadili	-5523
▁ngumu	-5524
oa	-5525
▁Bina	-5526
▁Vitabu	-5527
▁Uwanja	-5528
▁UCHAGUZI	-5529
-7	-5530
sein	-5531
dhabu	-5532
lika	-5533
hamed	-5534
▁MwanaHALISI	-5535
▁hand	-5536
▁Utu	-5537
ining	-5538
LIN	-5539
▁(37)	-5540
▁tangazo	-5541
MWA	-5542
▁Ima	-5543
▁amem	-5544
▁upinzani	-5545
UNG	-5546
OL	-5547
▁after	-5548
ongozwa	-5549
▁Sababu	-5550
▁based	-5551
▁EUR	-5552
▁uso	-5553
▁great	-5554
▁kufuata	-5555
INDU	-5556
jiunga	-5557
bels	-5558
▁Takwimu	-5559
pumba	-5560
sheria	-5561
WAN	-5562
▁maamuzi	-5563
▁USI	-5564
85	-5565
▁benki	-5566
▁Black	-5567
▁vo	-5568
▁vime	-5569
ogle	-5570
▁NBC	-5571
▁There	-5572
▁usajili	-5573
angwe	-5574
yoni	-5575
▁Sekta	-5576
▁cons	-5577
▁Ndugu	-5578
▁yet	-5579
▁wilayani	-5580
roho	-5581
▁34	-5582
atic	-5583
▁Kitabu	-5584
▁kuwepo	-5585
▁cor	-5586
▁Kari	-5587
▁kumaliza	-5588
fikiri	-5589
▁run	-5590
hubiri	-5591
▁Wanyama	-5592
▁kufuatia	-5593
ONA	-5594
ype	-5595
▁kuwasili	-5596
hojiano	-5597
▁Jaji	-5598
▁baina	-5599
====	-5600
▁Security	-5601
▁system	-5602
row	-5603
▁Mil	-5604
emplate	-5605
▁(13	-5606
▁kushindwa	-5607
wawa	-5608
taki	-5609
▁miwili	-5610
▁Tarehe	-5611
▁Wengine	-5612
err	-5613
********	-5614
erman	-5615
▁kwetu	-5616
▁zoezi	-5617
▁500	-5618
gundua	-5619
▁full	-5620
▁Mna	-5621
gani	-5622
▁kuchagua	-5623
▁nguo	-5624
ridian	-5625
▁leading	-5626
▁usimamizi	-5627
kaji	-5628
ulizo	-5629
nec	-5630
uzz	-5631
ycck	-5632
onyeza	-5633
▁Odinga	-5634
ENA	-5635
enea	-5636
hamasi	-5637
▁kipekee	-5638
Po	-5639
riend	-5640
zaa	-5641
▁ziki	-5642
ames	-5643
▁Big	-5644
put	-5645
gozi	-5646
pana	-5647
sapp	-5648
▁Mke	-5649
KWA	-5650
lom	-5651
▁mobile	-5652
▁mbegu	-5653
▁Kiongozi	-5654
▁$25	-5655
▁MAGU	-5656
ppy	-5657
ispaa	-5658
eneral	-5659
▁(35)	-5660
▁eng	-5661
▁Michuzi	-5662
vies	-5663
▁kush	-5664
lindwa	-5665
▁projects	-5666
▁kuhusiana	-5667
isi	-5668
anzisha	-5669
mt	-5670
▁Mg	-5671
urs	-5672
▁STA	-5673
andaliwa	-5674
▁Nj	-5675
▁mita	-5676
hamisi	-5677
RES	-5678
fanisi	-5679
▁way	-5680
its	-5681
versity	-5682
Ti	-5683
▁Alex	-5684
▁®	-5685
lud	-5686
old	-5687
lote	-5688
▁Fashion	-5689
▁Mengi	-5690
dee	-5691
▁jamaa	-5692
come	-5693
▁Article	-5694
▁utumiaji	-5695
rey	-5696
Sasa	-5697
▁tho	-5698
▁unapo	-5699
▁majengo	-5700
▁kas	-5701
fuu	-5702
UNGA	-5703
▁must	-5704
▁NY	-5705
▁ilitumwa	-5706
▁45	-5707
rect	-5708
▁Mwezi	-5709
▁Gra	-5710
▁kipa	-5711
▁TANGAZO	-5712
▁RO	-5713
uzo	-5714
▁athari	-5715
▁Japan	-5716
▁awamu	-5717
▁kusimamia	-5718
INGWA	-5719
▁Archives	-5720
▁sura	-5721
The	-5722
▁bec	-5723
▁Sunday	-5724
▁(39)	-5725
▁Open	-5726
eka	-5727
▁kuko	-5728
choraji	-5729
▁Ratiba	-5730
yth	-5731
ghan	-5732
▁Join	-5733
▁hafla	-5734
OA	-5735
fanyiwa	-5736
▁Wema	-5737
▁LinkedIn	-5738
▁JE	-5739
▁CON	-5740
ather	-5741
▁takri	-5742
vailable	-5743
erudi	-5744
▁kukubali	-5745
okoa	-5746
▁unataka	-5747
dian	-5748
▁George	-5749
▁Tiba	-5750
▁Labels	-5751
tml	-5752
jengwa	-5753
rench	-5754
ader	-5755
▁Mwananchi	-5756
isheni	-5757
▁nami	-5758
▁then	-5759
▁Meridian	-5760
▁utoaji	-5761
▁Wenyeji	-5762
▁mtazamo	-5763
:-	-5764
ondoo	-5765
gono	-5766
ller	-5767
▁KUM	-5768
▁Lake	-5769
graphy	-5770
GON	-5771
stand	-5772
▁kike	-5773
▁Dur	-5774
▁Masa	-5775
logi	-5776
▁ukiwa	-5777
▁(35	-5778
▁Form	-5779
RL	-5780
▁Unahitaji	-5781
pani	-5782
▁Need	-5783
cker	-5784
unu	-5785
less	-5786
▁Buil	-5787
manuel	-5788
69	-5789
▁55	-5790
bisho	-5791
rikisho	-5792
▁2)	-5793
▁niki	-5794
uajiri	-5795
▁Mohamed	-5796
amasha	-5797
▁kufi	-5798
bda	-5799
▁Friday	-5800
▁Jifunze	-5801
llustr	-5802
▁Kuondoa	-5803
▁viwanja	-5804
kwazo	-5805
▁Mn	-5806
jitokeza	-5807
▁Add	-5808
▁mazoezi	-5809
▁Change	-5810
asi	-5811
kamilifu	-5812
ZWA	-5813
▁(42)	-5814
dust	-5815
▁Profesa	-5816
▁Moto	-5817
▁Logo	-5818
ambazaji	-5819
▁Ushirikiano	-5820
▁Qui	-5821
▁kichwa	-5822
▁Dini	-5823
▁used	-5824
▁njema	-5825
▁server	-5826
▁Bure	-5827
▁kutambua	-5828
onyesho	-5829
ched	-5830
▁Prin	-5831
▁HII	-5832
▁rights	-5833
stari	-5834
ISHO	-5835
▁Langu	-5836
saidie	-5837
ambano	-5838
iwa	-5839
▁shaka	-5840
67	-5841
▁Hou	-5842
TIA	-5843
▁uni	-5844
________________	-5845
▁articles	-5846
▁Lipumba	-5847
▁TRA	-5848
▁mbinguni	-5849
▁FI	-5850
▁huenda	-5851
▁cal	-5852
anzishwa	-5853
way	-5854
▁mn	-5855
▁kuepu	-5856
▁Tunga	-5857
KEA	-5858
▁research	-5859
▁Fin	-5860
▁views	-5861
tajwa	-5862
sidi	-5863
▁play	-5864
▁MWANA	-5865
▁(16	-5866
▁KIDA	-5867
▁mpira	-5868
▁Nyimbo	-5869
▁Law	-5870
▁nika	-5871
▁walipo	-5872
engenezwa	-5873
▁imeondolewa	-5874
ISH	-5875
▁Robert	-5876
▁Print	-5877
▁($10	-5878
▁jioni	-5879
china	-5880
▁mchango	-5881
ZAJI	-5882
▁Nime	-5883
▁aliy	-5884
▁Back	-5885
diwani	-5886
merce	-5887
▁(33)	-5888
chael	-5889
▁uzinduzi	-5890
▁rec	-5891
▁BBC	-5892
onekano	-5893
visasa	-5894
▁Find	-5895
▁zimehifadhiwa	-5896
▁Magari	-5897
▁Kufu	-5898
▁jukwaa	-5899
▁hana	-5900
▁ungependa	-5901
ssi	-5902
order	-5903
▁yam	-5904
▁matangazo	-5905
usa	-5906
عربي	-5907
▁start	-5908
100	-5909
▁ulemavu	-5910
▁Meridianbet	-5911
▁own	-5912
ondon	-5913
▁next	-5914
lies	-5915
▁ter	-5916
▁Tus	-5917
FUNZI	-5918
zoea	-5919
FULI	-5920
▁open	-5921
84	-5922
kilisha	-5923
▁kushinda	-5924
▁Mkapa	-5925
▁kukosa	-5926
EMI	-5927
▁Ange	-5928
fungaji	-5929
sm	-5930
▁39	-5931
▁UNI	-5932
angilio	-5933
▁hawana	-5934
▁does	-5935
▁car	-5936
▁lolote	-5937
▁kuny	-5938
▁Mbowe	-5939
▁Israeli	-5940
▁mbio	-5941
▁Sanaa	-5942
▁MTU	-5943
▁Ramani	-5944
▁proper	-5945
▁Real	-5946
▁freelance	-5947
▁Mchungaji	-5948
yn	-5949
▁Kabla	-5950
▁ajabu	-5951
▁hakika	-5952
St	-5953
▁lat	-5954
umini	-5955
kaaji	-5956
▁ANA	-5957
mple	-5958
▁rasilimali	-5959
tolea	-5960
▁askari	-5961
kubaliano	-5962
▁tuki	-5963
▁Nd	-5964
pto	-5965
▁miundombinu	-5966
kumbuka	-5967
▁TAARIFA	-5968
▁Kabwe	-5969
wekea	-5970
▁Fundi	-5971
DUMA	-5972
▁takwimu	-5973
▁Uka	-5974
pigaji	-5975
▁pay	-5976
▁(33	-5977
tembelea	-5978
NI	-5979
chapa	-5980
wara	-5981
▁Uncategorized	-5982
▁usio	-5983
sus	-5984
ZARA	-5985
ef	-5986
▁youtube	-5987
stru	-5988
chani	-5989
▁Kujenga	-5990
ested	-5991
▁done	-5992
▁Content	-5993
▁YANGA	-5994
any	-5995
fic	-5996
▁JF	-5997
ols	-5998
▁MTAN	-5999
embo	-6000
▁yafuatayo	-6001
kisa	-6002
hammad	-6003
▁Premier	-6004
▁Mku	-6005
▁Geita	-6006
▁two	-6007
AP	-6008
ura	-6009
▁kamwe	-6010
▁wafanyabiashara	-6011
▁ziada	-6012
▁complete	-6013
▁mchezaji	-6014
mall	-6015
BLIA	-6016
▁kuwasiliana	-6017
▁Daily	-6018
▁Child	-6019
▁life	-6020
tumie	-6021
elf	-6022
▁Inaonyesha	-6023
phone	-6024
▁Majibu	-6025
pace	-6026
esheni	-6027
▁Pages	-6028
▁kukuza	-6029
▁vye	-6030
▁Now	-6031
37	-6032
▁top	-6033
▁Naye	-6034
▁Afghan	-6035
▁(32)	-6036
▁safu	-6037
▁Designed	-6038
zer	-6039
▁Kisha	-6040
chapisho	-6041
▃▃▃▃▃▃▃▃	-6042
fuasi	-6043
▁ika	-6044
▁Asia	-6045
▁don	-6046
▁Hawa	-6047
▁ijayo	-6048
▁unavyo	-6049
▁Español	-6050
▁waliokuwa	-6051
xy	-6052
▁ani	-6053
▁2017,	-6054
fululizo	-6055
ambamba	-6056
festyle	-6057
▁Maj	-6058
▁Events	-6059
pl	-6060
▁70	-6061
▁mikopo	-6062
▁wenu	-6063
/31	-6064
▁Australia	-6065
▁wanadamu	-6066
SQL	-6067
▁KIDATO	-6068
▁Milioni	-6069
▁ukubwa	-6070
▁haija	-6071
▁Wil	-6072
▁SHE	-6073
▁Abdul	-6074
ungufu	-6075
KATI	-6076
elele	-6077
wira	-6078
hadha	-6079
▁Zetu	-6080
habu	-6081
3,	-6082
rity	-6083
▁SWA	-6084
▁2022/2023	-6085
ront	-6086
▁Projects	-6087
▁(34	-6088
▁Ami	-6089
▁Skip	-6090
tup	-6091
▁Digital	-6092
▁AND	-6093
▁Lengo	-6094
▁Rwanda	-6095
▁Imani	-6096
▁meza	-6097
▁madai	-6098
▁But	-6099
▁akitoa	-6100
tambua	-6101
▁kinyume	-6102
RISTO	-6103
if	-6104
ibuka	-6105
nment	-6106
▁Noti	-6107
▁deli	-6108
▁ligi	-6109
PATA	-6110
ower	-6111
▁Marketing	-6112
▁ENG	-6113
?”	-6114
▁uzoefu	-6115
wei	-6116
▁masa	-6117
▁ufanisi	-6118
▁give	-6119
▁HUDUMA	-6120
dents	-6121
▁vipengele	-6122
▁MATUKIO	-6123
vil	-6124
▁Mkoani	-6125
▁KAN	-6126
▁Yaliyo	-6127
JWA	-6128
sso	-6129
-2017	-6130
▁Magazetini	-6131
▁wagonjwa	-6132
▁NAI	-6133
hanga	-6134
▁Cooki	-6135
▁kuendesha	-6136
▁Huu	-6137
▁Kiba	-6138
choche	-6139
▁kukutana	-6140
dumu	-6141
▁chaguo	-6142
▁kubadilisha	-6143
ESHA	-6144
▁mfupi	-6145
▁م	-6146
tual	-6147
▁process	-6148
lishi	-6149
▁where	-6150
▁☆	-6151
▁Ende	-6152
▁wasiliana	-6153
▁Story	-6154
ongezwa	-6155
▁Burundi	-6156
▁cer	-6157
▁KUBWA	-6158
shirikisha	-6159
▁android	-6160
gain	-6161
▁Rom	-6162
▁Freelancers	-6163
our	-6164
wanga	-6165
Com	-6166
▁Uzazi	-6167
▁wajibu	-6168
▁Ber	-6169
▁muundo	-6170
49	-6171
itle	-6172
▁Ziwa	-6173
▁haina	-6174
▁skills	-6175
▁Vyombo	-6176
ste	-6177
barani	-6178
▁amet	-6179
▁Mala	-6180
▁Mwinyi	-6181
pasa	-6182
muziki	-6183
▁jengo	-6184
▁ZI	-6185
▁BIBLIA	-6186
▁aku	-6187
eruhi	-6188
▁Français	-6189
ongamano	-6190
▁mifugo	-6191
▁experien	-6192
▁Monday	-6193
wada	-6194
▁Zote	-6195
▁kero	-6196
▁files	-6197
▁watatu	-6198
▁number	-6199
▁TAIFA	-6200
▁Hadithi	-6201
▁Tupe	-6202
▁Here	-6203
▁uzima	-6204
chester	-6205
▁Stori	-6206
lest	-6207
▁Ltd	-6208
▁required	-6209
tezi	-6210
De	-6211
sababu	-6212
▁kuwapa	-6213
▁kuhifadhi	-6214
▁€	-6215
dea	-6216
▁MAJI	-6217
▁Coun	-6218
▁kupa	-6219
fication	-6220
veni	-6221
atani	-6222
chimbaji	-6223
▁MAGUFULI	-6224
▁Link	-6225
tazama	-6226
▁marafiki	-6227
▁Program	-6228
▁book	-6229
▁kutokea	-6230
ines	-6231
▁Kubwa	-6232
PTE	-6233
▁str	-6234
tihada	-6235
uze	-6236
hudumia	-6237
▁(40)	-6238
▁Mh	-6239
▁kufika	-6240
▁mvua	-6241
amily	-6242
▁BE	-6243
VER	-6244
uo	-6245
ckson	-6246
▁jumuiya	-6247
▁Kigoma	-6248
▁Works	-6249
▁uzito	-6250
kaya	-6251
▁Jukwaa	-6252
▁MWAKA	-6253
MT	-6254
mart	-6255
▁Wel	-6256
KUU	-6257
▁Kitambulisho	-6258
▁MAFUN	-6259
lock	-6260
▁Inayo	-6261
▁engine	-6262
loy	-6263
▁jimbo	-6264
▁tal	-6265
pino	-6266
ulizwa	-6267
ikh	-6268
▁ukumbi	-6269
▁soma	-6270
KIA	-6271
duct	-6272
▁music	-6273
fungo	-6274
▁licha	-6275
uzulu	-6276
▁AUDIO	-6277
▁etc	-6278
anishi	-6279
▁iwapo	-6280
suku	-6281
▁Yanayo	-6282
kuzi	-6283
▁ninyi	-6284
▁end	-6285
▁Shiriki	-6286
tiv	-6287
pal	-6288
tambu	-6289
▁Fahamu	-6290
▁Bid	-6291
tiki	-6292
▁hifadhi	-6293
▁HAYA	-6294
▁Gachagua	-6295
gara	-6296
▁Fanpop	-6297
▁field	-6298
▁Msanii	-6299
pD	-6300
▁KILI	-6301
kundu	-6302
▁Iringa	-6303
idizi	-6304
▁kuchangia	-6305
godi	-6306
▁ed	-6307
ways	-6308
chafu	-6309
▁Mji	-6310
poke	-6311
atana	-6312
▁London	-6313
REAKING	-6314
▁madhara	-6315
▁support	-6316
kafu	-6317
ken	-6318
safiri	-6319
▁kuamini	-6320
>>	-6321
anifu	-6322
kita	-6323
▁NDO	-6324
▁available	-6325
▁kidato	-6326
leva	-6327
▁Jiji	-6328
fanana	-6329
▁MASHA	-6330
▁amekuwa	-6331
DAU	-6332
▁Edi	-6333
▁Simi	-6334
▁Nguvu	-6335
▁SEPTE	-6336
▁Amerika	-6337
fikiria	-6338
▁maru	-6339
▁inahusishwa	-6340
MISEMI	-6341
nam	-6342
kiba	-6343
▁$5	-6344
zzim	-6345
▁RC	-6346
▁WIZARA	-6347
anguka	-6348
▁Israel	-6349
▁BORA	-6350
▁includ	-6351
▁FacebookShare	-6352
ns	-6353
▁Mwili	-6354
lugin	-6355
▁Thanks	-6356
▁msanii	-6357
PITA	-6358
sites	-6359
▁WANAFUNZI	-6360
▁game	-6361
▁description	-6362
▁Kassim	-6363
kwisha	-6364
▁SH	-6365
▁fin	-6366
nap	-6367
lem	-6368
gawan	-6369
▁kufungua	-6370
▁uongo	-6371
▁Kun	-6372
▁java	-6373
:30	-6374
▁mwanga	-6375
▁bomba	-6376
case	-6377
fisadi	-6378
▁gazeti	-6379
krani	-6380
▁Inatengeneza	-6381
▁bahati	-6382
▁chuo	-6383
gusa	-6384
▁jobs	-6385
36	-6386
Cover	-6387
▁Mtwara	-6388
raq	-6389
▁LU	-6390
play	-6391
wekeza	-6392
▁week	-6393
▁Magharibi	-6394
▁AKI	-6395
▁long	-6396
▁2017.	-6397
board	-6398
anyika	-6399
▁Site	-6400
▁anayerudi	-6401
ANCHI	-6402
yana	-6403
▁jukumu	-6404
wri	-6405
-2022	-6406
tumizi	-6407
DP	-6408
andari	-6409
▁\	-6410
geuzi	-6411
▁Napania	-6412
▁rekodi	-6413
▁tunaweza	-6414
humiwa	-6415
▁Links	-6416
leza	-6417
info	-6418
▁MAHAKA	-6419
kusanya	-6420
▁andika	-6421
▁NCH	-6422
torial	-6423
atumi	-6424
simam	-6425
▁Make	-6426
▁Vita	-6427
▁Alhamisi	-6428
▁Uwe	-6429
("	-6430
▁Hote	-6431
zen	-6432
▁?	-6433
uzzle	-6434
▁kifaa	-6435
▁SHU	-6436
ball	-6437
▁Whi	-6438
▁YAKE	-6439
uty	-6440
▁Developers	-6441
▁Asili	-6442
▁Kesi	-6443
htt	-6444
▁vyuo	-6445
▁Allaahu	-6446
chuano	-6447
pati	-6448
▁unahitaji	-6449
▁hukumu	-6450
oksidi	-6451
ui	-6452
rivate	-6453
jio	-6454
kebisha	-6455
UT	-6456
▁ulimwenguni	-6457
▁House	-6458
▁Muhammad	-6459
▁Watch	-6460
▁Cup	-6461
▁sekun	-6462
▁Screen	-6463
▁sur	-6464
▁hisia	-6465
irl	-6466
▁Tigo	-6467
ground	-6468
DS	-6469
▁les	-6470
▁BREAKING	-6471
ombasa	-6472
posed	-6473
▁Followers	-6474
Con	-6475
potea	-6476
▁($10-30	-6477
▁kuuza	-6478
istry	-6479
َا	-6480
tiona	-6481
▁database	-6482
▁Mkakati	-6483
▁injili	-6484
link	-6485
▁LIS	-6486
▁Mfuko	-6487
▁GO	-6488
ging	-6489
▁Utamaduni	-6490
▁Users	-6491
▁mingi	-6492
pom	-6493
▁mahusiano	-6494
हि	-6495
▁Trademark	-6496
▁kuondoka	-6497
ZINDU	-6498
▁mifumo	-6499
▁let	-6500
▁offer	-6501
maanisha	-6502
▁Guide	-6503
▁provided	-6504
▁Best	-6505
87	-6506
:10	-6507
▁kosa	-6508
▁NCHINI	-6509
▁VITABU	-6510
▁contact	-6511
▁makuu	-6512
zon	-6513
car	-6514
▁Kir	-6515
▁Cele	-6516
DOMA	-6517
▁Jiunge	-6518
▁Usajili	-6519
hala	-6520
दी	-6521
▁Adven	-6522
yar	-6523
▁wenzake	-6524
PORT	-6525
▁LIGI	-6526
▁Kadi	-6527
▁mpenzi	-6528
▁Ukraine	-6529
▁kimoja	-6530
▁Deutsch	-6531
▁hasi	-6532
andiko	-6533
▁vifo	-6534
ambukizi	-6535
▁Kika	-6536
▁Wam	-6537
▁SIMBA	-6538
▁milango	-6539
ledge	-6540
▁Zangu	-6541
adhimisho	-6542
OND	-6543
▁differ	-6544
panda	-6545
▁yanaweza	-6546
.....	-6547
kulia	-6548
▁menu	-6549
▁umoja	-6550
▁watch	-6551
▁Tawala	-6552
▁mzima	-6553
عربية	-6554
▁Other	-6555
▁South	-6556
▁matendo	-6557
▁hofu	-6558
▁Swa	-6559
thers	-6560
čina	-6561
stall	-6562
▁ngozi	-6563
▁Klabu	-6564
▁Company	-6565
▁right	-6566
▁test	-6567
▁kiti	-6568
▁Askofu	-6569
▁Manispaa	-6570
▁english	-6571
▁sala	-6572
atasi	-6573
▁Viwanda	-6574
▁Kibinafsi	-6575
++	-6576
kum	-6577
▁Quotes	-6578
▁37	-6579
▁mwi	-6580
▁Isa	-6581
jengea	-6582
▁likizo	-6583
▁Part	-6584
▁masi	-6585
▁ukatili	-6586
▁Yusu	-6587
▁proposal	-6588
rej	-6589
▁hotuba	-6590
faka	-6591
▁pembe	-6592
▁Ve	-6593
▁wataalamu	-6594
▁($30-250	-6595
▁(29	-6596
▁James	-6597
▁Dewji	-6598
▁kughairi	-6599
anduku	-6600
▁ua	-6601
▁Inves	-6602
▁zilizopo	-6603
▁Tabora	-6604
▁anapo	-6605
▁Zari	-6606
▁Manchester	-6607
▁Michael	-6608
▁moshi	-6609
▁Kitengo	-6610
▁kisi	-6611
▁School	-6612
▁wanapo	-6613
monize	-6614
▁matters	-6615
wakilishi	-6616
▁kiwanda	-6617
Au	-6618
Ra	-6619
▁Wewe	-6620
▁▼	-6621
▁Mifugo	-6622
▁sti	-6623
ney	-6624
▁vingi	-6625
Ali	-6626
▁Maujanja	-6627
haribu	-6628
act	-6629
takapo	-6630
-08	-6631
omen	-6632
emina	-6633
▁AJA	-6634
▁member	-6635
▁fainali	-6636
▁Day	-6637
▁Mastaa	-6638
kishwa	-6639
furahia	-6640
▁profile	-6641
ample	-6642
tua	-6643
▁du	-6644
▁plan	-6645
rol	-6646
▁(27	-6647
set	-6648
▁php	-6649
▁mwenza	-6650
CL	-6651
▁store	-6652
▁gesi	-6653
▁ibada	-6654
▁Franc	-6655
▁Ndiyo	-6656
fect	-6657
jita	-6658
▁tiba	-6659
dhibitishwa	-6660
▁Kurasa	-6661
clo	-6662
▁yaki	-6663
▁language	-6664
▁wingi	-6665
5,	-6666
▁Asema	-6667
▁ques	-6668
▁discuss	-6669
pasuaji	-6670
▁Excel	-6671
▁From	-6672
▁(200	-6673
bles	-6674
nesday	-6675
▁Faida	-6676
▁kuendeleza	-6677
table	-6678
▁Bible	-6679
ite	-6680
▁understand	-6681
pitia	-6682
▁kikosi	-6683
▁‹	-6684
▁akasema	-6685
▁Ume	-6686
▁naku	-6687
▁maka	-6688
▁Disemba	-6689
badilisha	-6690
▁Mchanganyiko	-6691
▁PS	-6692
lue	-6693
▁Lindi	-6694
une	-6695
mous	-6696
▁Forums	-6697
▁AirCover	-6698
▁UJ	-6699
tural	-6700
▁take	-6701
cei	-6702
▁ange	-6703
Swa	-6704
▁date	-6705
▁Red	-6706
▁Pepe	-6707
kamata	-6708
▁Mba	-6709
▁National	-6710
▁miguu	-6711
zy	-6712
anzia	-6713
▁ukuta	-6714
▁и	-6715
hoo	-6716
lian	-6717
▁mteja	-6718
▁mahakamani	-6719
kiza	-6720
onald	-6721
▁1)	-6722
▁Mato	-6723
stitu	-6724
▁Msingi	-6725
face	-6726
JILI	-6727
ense	-6728
LISH	-6729
▁itakayo	-6730
ret	-6731
▁neema	-6732
▁copy	-6733
▁kujitegemea	-6734
zunguko	-6735
▁vijiji	-6736
▁kutangaza	-6737
▁makubaliano	-6738
sisimua	-6739
▁err	-6740
peo	-6741
▁David	-6742
▁Utumizi	-6743
▁Makam	-6744
ENO	-6745
okia	-6746
romo	-6747
dd	-6748
▁tamaa	-6749
▁review	-6750
▁matunda	-6751
ants	-6752
▁wasiwasi	-6753
rabati	-6754
▁Wako	-6755
▁mitatu	-6756
▁inte	-6757
▁Usimamizi	-6758
▁DKT	-6759
▁RSS	-6760
▁Kib	-6761
timu	-6762
ems	-6763
▁Registered	-6764
eshe	-6765
duka	-6766
▁Don	-6767
▁pages	-6768
ads	-6769
▁(+	-6770
▁offi	-6771
▁Wednesday	-6772
Michezo	-6773
▁google	-6774
kra	-6775
MOJA	-6776
tists	-6777
GONJWA	-6778
pelekwa	-6779
ortfo	-6780
atumika	-6781
▁mti	-6782
urugu	-6783
▁JIna	-6784
▁Sikiliza	-6785
▁Pakua	-6786
aturday	-6787
▁analy	-6788
▁JPM	-6789
▁Ib	-6790
Ya	-6791
▁kutatua	-6792
▁kaunti	-6793
▁DODOMA	-6794
▁ukaaji	-6795
▁KIMA	-6796
resent	-6797
▁bed	-6798
▁WANANCHI	-6799
rew	-6800
erali	-6801
▁dra	-6802
cept	-6803
▁such	-6804
▁Chap	-6805
▁mwanadamu	-6806
▁Bet	-6807
▁Karibisha	-6808
fili	-6809
▁Gall	-6810
▁Musa	-6811
▁SALAAM	-6812
▁freelancers	-6813
▁wajumbe	-6814
▁jitihada	-6815
▁Maria	-6816
OTE	-6817
emokrasia	-6818
▁mapinduzi	-6819
4,	-6820
▁much	-6821
▁inapakia	-6822
▁akisema	-6823
▁dalili	-6824
▁jirani	-6825
▁kuba	-6826
rabu	-6827
eges	-6828
vent	-6829
pesi	-6830
rekani	-6831
▁Tips	-6832
▁mtihani	-6833
97	-6834
▁Super	-6835
▁custom	-6836
▁inapatikana	-6837
onde	-6838
▁Services	-6839
gali	-6840
UM	-6841
tests	-6842
▁Essay	-6843
ets	-6844
▁KIS	-6845
LIZA	-6846
▁(37	-6847
/2015	-6848
▁vigezo	-6849
▁Mombasa	-6850
egesho	-6851
▁kujadili	-6852
yika	-6853
▁Ray	-6854
CB	-6855
▁lile	-6856
▁Mart	-6857
83	-6858
▁Quick	-6859
onymous	-6860
esti	-6861
ingawa	-6862
▁(30	-6863
▁Ub	-6864
▁Gallery	-6865
▁afanye	-6866
ington	-6867
▁tasnia	-6868
kuaji	-6869
olution	-6870
▁bahari	-6871
ler	-6872
Pa	-6873
ancy	-6874
▁Month	-6875
▁mwandishi	-6876
46	-6877
pendekeza	-6878
95	-6879
angulizi	-6880
▁Português	-6881
vile	-6882
isaidia	-6883
pendekezo	-6884
▁University	-6885
▁GA	-6886
▁Wastani	-6887
▁were	-6888
▁French	-6889
enti	-6890
▁SHI	-6891
▁Ndoa	-6892
▁2016/2017	-6893
▁kipengele	-6894
dui	-6895
▁urahisi	-6896
hout	-6897
fuatavyo	-6898
▁ahadi	-6899
heme	-6900
▁mkali	-6901
▁mitano	-6902
▁PDF	-6903
mil	-6904
▁List	-6905
lad	-6906
ishna	-6907
▁fields	-6908
हिन	-6909
heri	-6910
zil	-6911
als	-6912
huma	-6913
▁jua	-6914
fufu	-6915
usha	-6916
▁inasema	-6917
▁JW	-6918
▁before	-6919
▁£	-6920
▁mstari	-6921
sajiliwa	-6922
▁uwezekano	-6923
▁Jana	-6924
▁baridi	-6925
adha	-6926
TWA	-6927
uzito	-6928
▁kuzaliwa	-6929
▁nane	-6930
lestina	-6931
somaji	-6932
▁NDANI	-6933
▁Hotuba	-6934
▁BARA	-6935
▁mchana	-6936
ukuma	-6937
coun	-6938
▁kupatikana	-6939
auty	-6940
▁tija	-6941
▁Tusome	-6942
ggle	-6943
हिन्	-6944
fsiriwa	-6945
हिन्दी	-6946
▁Sura	-6947
▁kutembelea	-6948
▁Ken	-6949
▁DJ	-6950
▁Channel	-6951
▁ف	-6952
▁wasichana	-6953
teua	-6954
▁uzazi	-6955
▁MBALI	-6956
▁tru	-6957
▁mojawapo	-6958
▁alipokuwa	-6959
▁kuwezesha	-6960
ender	-6961
hova	-6962
▁kuzalisha	-6963
▁9.	-6964
▁Nu	-6965
ank	-6966
▁2022,	-6967
PlaySto	-6968
▁asema	-6969
piti	-6970
endea	-6971
ortfolio	-6972
▁(43)	-6973
▁KUI	-6974
▁msimamo	-6975
▁qui	-6976
▁Updates	-6977
ONE	-6978
▁(38	-6979
▁mka	-6980
ungwa	-6981
fafanuzi	-6982
nable	-6983
▁Saturday	-6984
▁EX	-6985
vum	-6986
▁jiji	-6987
fadhili	-6988
UME	-6989
ONDO	-6990
atures	-6991
ANGO	-6992
angisha	-6993
PTCHA	-6994
tathmini	-6995
▁Investor	-6996
chawi	-6997
stahili	-6998
▁kibiashara	-6999
▁kiswahili	-7000
▁SANA	-7001
▁Urais	-7002
▁Umeme	-7003
lalamiko	-7004
mea	-7005
▁utalii	-7006
▁wal	-7007
cument	-7008
▁kambi	-7009
▁kupoteza	-7010
kupa	-7011
yanzo	-7012
▁Loading	-7013
▁Write	-7014
ategoria	-7015
engeti	-7016
atar	-7017
ruhusiwa	-7018
ping	-7019
▁LIVE	-7020
▁kupita	-7021
shanga	-7022
▁utamaduni	-7023
/09/2022	-7024
▁GBP	-7025
agiza	-7026
▁kucha	-7027
▁had	-7028
▁reviews	-7029
▁(38)	-7030
ENE	-7031
pate	-7032
ktroni	-7033
▁AJIRA	-7034
▁iOS	-7035
▁BINGWA	-7036
▁migogoro	-7037
▁daima	-7038
▁Val	-7039
usho	-7040
▁king	-7041
▁Euro	-7042
▁Sport	-7043
nah	-7044
▁uteuzi	-7045
▁Madrid	-7046
▁Kombe	-7047
▁por	-7048
iko	-7049
CAPTCHA	-7050
mbabwe	-7051
▁kwangu	-7052
▁$10	-7053
▁ingawa	-7054
hamasisha	-7055
ental	-7056
▁kufuatilia	-7057
ambaa	-7058
▁ID	-7059
▁halmashauri	-7060
HILI	-7061
▁Kaunti	-7062
ifu	-7063
ometh	-7064
▁song	-7065
▁bungeni	-7066
amehe	-7067
▁NNE	-7068
▁(31)	-7069
MM	-7070
▁Maktaba	-7071
▁Wakili	-7072
▁Ramad	-7073
▁val	-7074
pendeza	-7075
▁Kamera	-7076
▁Champi	-7077
rsday	-7078
▁(12	-7079
▁Hash	-7080
▁ubaguzi	-7081
tical	-7082
▁Required	-7083
日本	-7084
▁reCAPTCHA	-7085
ory	-7086
▁walivyo	-7087
gai	-7088
▁IT	-7089
ishoni	-7090
▁Mitaa	-7091
▁UJENZI	-7092
BAR	-7093
▁peke	-7094
▁lea	-7095
uzwa	-7096
picha	-7097
yon	-7098
▁ud	-7099
▁Usiuze	-7100
▁vyakula	-7101
pDownload	-7102
ufaa	-7103
df	-7104
▁emp	-7105
▁Francis	-7106
choki	-7107
▁mashirika	-7108
mm	-7109
▁YE	-7110
▁Tanzani	-7111
jadala	-7112
eded	-7113
bola	-7114
▁Vitengo	-7115
▁nyenzo	-7116
FO	-7117
▁Kaimu	-7118
▁Zinazovuma	-7119
ENDA	-7120
▁husus	-7121
ern	-7122
▁report	-7123
kuza	-7124
▁Alb	-7125
omething	-7126
sara	-7127
tarajia	-7128
▁Iraq	-7129
▁zimelindwa	-7130
▁NAIBU	-7131
▁maafisa	-7132
▁Kutumia	-7133
▁Showcase	-7134
rigina	-7135
▁Contests	-7136
hibitisha	-7137
Sehemu	-7138
▁German	-7139
▁sambamba	-7140
pigana	-7141
▁chanjo	-7142
▁MAWA	-7143
kushoto	-7144
undation	-7145
funguliwa	-7146
tomati	-7147
▁Hua	-7148
▁AD	-7149
pona	-7150
KIM	-7151
▁Nyota	-7152
日本語	-7153
▁friend	-7154
▁version	-7155
▁2:	-7156
▁ZAN	-7157
▁Life	-7158
▁issu	-7159
▁Language	-7160
▁key	-7161
▁Kauli	-7162
dic	-7163
pora	-7164
▁MSI	-7165
▁Sama	-7166
▁CHU	-7167
▁Puzzle	-7168
▁wavulana	-7169
vest	-7170
pishe	-7171
▁kume	-7172
▁Sala	-7173
▁vipi	-7174
▁43	-7175
▁Tam	-7176
▁awe	-7177
▁wazee	-7178
▁reserved	-7179
▁marked	-7180
▁$30	-7181
tengenezwa	-7182
jadiliano	-7183
FASI	-7184
▁Mfalme	-7185
▁adhabu	-7186
▁1:	-7187
▁LE	-7188
▁kukamilisha	-7189
▁Nami	-7190
gion	-7191
ccess	-7192
▁Also	-7193
▁mfalme	-7194
▁FAI	-7195
▁Hai	-7196
pigia	-7197
fautiana	-7198
koni	-7199
petu	-7200
▁pande	-7201
paper	-7202
Di	-7203
▁anata	-7204
▁left	-7205
▁person	-7206
▁Ukubwa	-7207
▁art	-7208
▁Mari	-7209
▁CSS	-7210
▁chombo	-7211
wasilishwa	-7212
▁Petro	-7213
▁Endelea	-7214
▁marehemu	-7215
▁maslahi	-7216
——	-7217
zwe	-7218
azi	-7219
▁ham	-7220
binadamu	-7221
▁Thursday	-7222
ctors	-7223
▁Feedback	-7224
▁PILI	-7225
guja	-7226
ONO	-7227
▁tri	-7228
▁Chunguza	-7229
▁Mwanangu	-7230
andalizi	-7231
bidi	-7232
fichua	-7233
▁wai	-7234
haribi	-7235
▁Korea	-7236
▁exper	-7237
▁small	-7238
▁maumivu	-7239
▁Trending	-7240
▁look	-7241
zio	-7242
▁atakuwa	-7243
▁Imependekezwa	-7244
hamiaji	-7245
TANA	-7246
▁Ally	-7247
▁Suma	-7248
yahudi	-7249
amana	-7250
▁kuit	-7251
pla	-7252
▁Sale	-7253
▁OK	-7254
▁из	-7255
ester	-7256
▁Machapisho	-7257
cb	-7258
▁UK	-7259
▁pasi	-7260
▁Masoko	-7261
▁Mabadiliko	-7262
ety	-7263
▁mno	-7264
▁Waki	-7265
▁Mass	-7266
▁Azimio	-7267
▁(51)	-7268
▁(41	-7269
▁miti	-7270
mira	-7271
chen	-7272
▁Club	-7273
▁kusikiliza	-7274
yal	-7275
▁Duration	-7276
bro	-7277
ingle	-7278
▁makampuni	-7279
acka	-7280
▁barani	-7281
eks	-7282
▁kwasababu	-7283
oting	-7284
▁Snap	-7285
▁bunge	-7286
▁Bub	-7287
▁maandishi	-7288
▁Việ	-7289
zimika	-7290
▁Spoti	-7291
▁inawa	-7292
▁Waandishi	-7293
▁kiume	-7294
▁Bay	-7295
▁Shirikisho	-7296
shambuliaji	-7297
▁tuicha	-7298
▁nafsi	-7299
livu	-7300
▁CHAN	-7301
▁fomu	-7302
▁Conduct	-7303
-10	-7304
elezwa	-7305
81	-7306
▁ndivyo	-7307
▁tuichapishe	-7308
atured	-7309
▁Hili	-7310
▁Forum	-7311
HAMA	-7312
▁Wakala	-7313
▁Photoshop	-7314
▁JAMII	-7315
▁Kategoria	-7316
GWA	-7317
Video	-7318
▁house	-7319
Twitter	-7320
▁Kid	-7321
GH	-7322
dri	-7323
▁Wanao	-7324
▁Rub	-7325
▁mikataba	-7326
▁writer	-7327
tam	-7328
▁Wadau	-7329
▁Majina	-7330
▁Maeneo	-7331
chel	-7332
badilika	-7333
▁kizazi	-7334
cu	-7335
ONGOZI	-7336
▁mabaya	-7337
▁mapya	-7338
▁shabiki	-7339
TIN	-7340
tting	-7341
▁FEDHA	-7342
zoni	-7343
▁Gospel	-7344
َّ	-7345
▁General	-7346
ission	-7347
▁mgombea	-7348
▁Research	-7349
▁York	-7350
47	-7351
upe	-7352
▁()	-7353
▁mashu	-7354
▁miji	-7355
▁Uturuki	-7356
inua	-7357
▁waziri	-7358
▁kuepuka	-7359
hammed	-7360
ands	-7361
▁Shangwe	-7362
▁live	-7363
▁wordpress	-7364
▁WILAYA	-7365
▁different	-7366
balozi	-7367
ENDELEA	-7368
timi	-7369
▁Ethi	-7370
lau	-7371
▁Nataka	-7372
▁kio	-7373
▁kupewa	-7374
▁network	-7375
▁kupanda	-7376
hiki	-7377
▁Report	-7378
▁Việt	-7379
sali	-7380
zika	-7381
cle	-7382
▁kira	-7383
▁Jambo	-7384
▁Harmonize	-7385
▁message	-7386
▁room	-7387
▁(44)	-7388
▁nafuu	-7389
▁hawaku	-7390
▁kuelewa	-7391
▁wizara	-7392
▁Utumishi	-7393
LY	-7394
AS	-7395
Mu	-7396
fedha	-7397
▁hatimaye	-7398
▁nishati	-7399
REHE	-7400
▁0.	-7401
▁Sci	-7402
ause	-7403
hakik	-7404
hamisha	-7405
cky	-7406
unzi	-7407
hudumu	-7408
CI	-7409
emwa	-7410
▁Sin	-7411
ween	-7412
▁essay	-7413
▁custo	-7414
sy	-7415
riwa	-7416
▁Dear	-7417
▁Anonymous	-7418
cks	-7419
Expert	-7420
biria	-7421
sibu	-7422
▁virusi	-7423
ussein	-7424
▁shamba	-7425
▁(1,	-7426
▁kijana	-7427
▁vyumba	-7428
au	-7429
op	-7430
▁End	-7431
▁hawezi	-7432
▁ifuatavyo	-7433
▁Address	-7434
atch	-7435
endeshwa	-7436
▁Tuesday	-7437
▁plat	-7438
shindani	-7439
▁Saa	-7440
▁Anna	-7441
sto	-7442
▁TH	-7443
▁Ibrahi	-7444
▁Fac	-7445
ongoji	-7446
yoyo	-7447
▁wen	-7448
▁Bank	-7449
▁Bibi	-7450
▁mshindi	-7451
uring	-7452
▁SEPTEMBA	-7453
▁Mdee	-7454
sefu	-7455
rence	-7456
▁Dire	-7457
GP	-7458
▁Jenerali	-7459
▁kuzungumza	-7460
tenda	-7461
▁mlango	-7462
▁zinaweza	-7463
shiria	-7464
▁kuongezeka	-7465
▁translation	-7466
▁nawa	-7467
rior	-7468
▁katiba	-7469
▁Tuzo	-7470
▁Create	-7471
▁kitendo	-7472
opia	-7473
▁vibaya	-7474
▁ambako	-7475
ürk	-7476
▁nk	-7477
▁Rem	-7478
▁Lifestyle	-7479
▁Dia	-7480
▁kufurahi	-7481
Za	-7482
athon	-7483
▁Jumla	-7484
▁MWENYEJI	-7485
uds	-7486
▁Jibu	-7487
▁KRISTO	-7488
▁kukata	-7489
▁maelekezo	-7490
ublic	-7491
sari	-7492
▁kamba	-7493
▁Internet	-7494
▁entry	-7495
▁YOU	-7496
PER	-7497
SIC	-7498
▁Julius	-7499
pimaji	-7500
▁chako	-7501
▁Mgeni	-7502
▁Phili	-7503
▁experienced	-7504
▁Kura	-7505
▁ENGLISH	-7506
▁Ufalme	-7507
▁Graphic	-7508
▁mate	-7509
spe	-7510
asy	-7511
ffic	-7512
▁Source	-7513
nown	-7514
▁websites	-7515
▁Mbinu	-7516
▁Yangu	-7517
▁kuonekana	-7518
▁matumaini	-7519
hutu	-7520
ramu	-7521
▁text	-7522
▁REA	-7523
▁UP	-7524
HAMU	-7525
▁ada	-7526
▁Heka	-7527
▁mwanafunzi	-7528
pinga	-7529
▁anat	-7530
▁300	-7531
fakari	-7532
▁kulevya	-7533
▁kukusanya	-7534
▁MAP	-7535
▁style	-7536
budu	-7537
▁lilizinduliwa	-7538
▁mam	-7539
▁Book	-7540
▁Dani	-7541
Dewji	-7542
▁mah	-7543
ENYA	-7544
▁HiviSasa	-7545
▁Wote	-7546
▁yuko	-7547
thibitisha	-7548
HUSI	-7549
▁$15	-7550
▁Uvuvi	-7551
▁kuunda	-7552
js	-7553
mwi	-7554
DewjiBlog	-7555
▁barabarani	-7556
▁Mki	-7557
▁washiriki	-7558
teli	-7559
▁uliofanyika	-7560
bai	-7561
▁Tekno	-7562
▁mgogoro	-7563
daka	-7564
▁(47)	-7565
gan	-7566
▁Main	-7567
▁short	-7568
kishe	-7569
▁somo	-7570
▁dhahabu	-7571
puter	-7572
pangwa	-7573
▁able	-7574
▁isipokuwa	-7575
▁area	-7576
you	-7577
▁Bel	-7578
▁kiroho	-7579
KANA	-7580
▁Ulinzi	-7581
▁maambukizi	-7582
▁samaki	-7583
▁management	-7584
pper	-7585
▁Allah	-7586
COM	-7587
▁Nga	-7588
▁rushwa	-7589
▁Proposed	-7590
zz	-7591
▁Multi	-7592
ints	-7593
▁Yohana	-7594
ederlands	-7595
▁Archite	-7596
▁yupo	-7597
▁HOME	-7598
▁binti	-7599
ktroniki	-7600
ose	-7601
▁WAKE	-7602
▁Marehemu	-7603
▁imara	-7604
▁Tom	-7605
▁_	-7606
aratani	-7607
▁Sawa	-7608
▁Huawei	-7609
jifunza	-7610
▁Public	-7611
▁MWANZA	-7612
▁”	-7613
▁User	-7614
wezeshwa	-7615
▁nilikuwa	-7616
▁Kundi	-7617
▁mavazi	-7618
▁bustani	-7619
▁wor	-7620
stawi	-7621
Picha	-7622
▁mkononi	-7623
emia	-7624
▁←	-7625
▁last	-7626
▁3)	-7627
▁Young	-7628
▁feed	-7629
▁Pemba	-7630
▁mashambu	-7631
▁nyakati	-7632
▁speci	-7633
ongwe	-7634
▁(47	-7635
▁mio	-7636
lated	-7637
▁following	-7638
HH	-7639
kat	-7640
▁Kufuatia	-7641
▁Zu	-7642
▁jiunge	-7643
▁Lawrence	-7644
▁Jac	-7645
▁title	-7646
▁Press	-7647
huku	-7648
▁JIN	-7649
▁Toggle	-7650
▁47	-7651
-20	-7652
lator	-7653
umbele	-7654
ilipino	-7655
▁AKA	-7656
SION	-7657
omla	-7658
▁Kamanda	-7659
mal	-7660
▁kuche	-7661
-2	-7662
▁;	-7663
▁(49	-7664
anywa	-7665
pha	-7666
▁(41)	-7667
▁acc	-7668
EL	-7669
ongwa	-7670
▁interested	-7671
▁Zimbabwe	-7672
▁Baraka	-7673
funguka	-7674
▁Net	-7675
▁Just	-7676
▁weeks	-7677
alim	-7678
sante	-7679
▁wach	-7680
.)	-7681
▁kutuma	-7682
▁vurugu	-7683
somwa	-7684
▁Learn	-7685
,000,000	-7686
▁requirements	-7687
▁kuandaa	-7688
▁Sumaye	-7689
▁Canada	-7690
haribifu	-7691
ار	-7692
▁kudumu	-7693
TD	-7694
▁MK	-7695
▁Beach	-7696
▁could	-7697
hol	-7698
▁Kulingana	-7699
▁janja	-7700
▁(46)	-7701
unguka	-7702
▁hutoa	-7703
bula	-7704
▁print	-7705
▁Kutoa	-7706
yah	-7707
pend	-7708
millardayo	-7709
▁hariri	-7710
▁kuwasaidia	-7711
piki	-7712
keli	-7713
▁UKA	-7714
▁Maha	-7715
prise	-7716
vers	-7717
firishaji	-7718
dated	-7719
▁Dha	-7720
▁Kocha	-7721
▁APP	-7722
▁TAMISEMI	-7723
▁halali	-7724
▁Password	-7725
▁Б	-7726
▁wit	-7727
inese	-7728
▁Cus	-7729
▁Kupambana	-7730
▁Ndu	-7731
▁Publish	-7732
▁unachohitaji	-7733
zeko	-7734
▁Hakimiliki	-7735
gano	-7736
▁RU	-7737
af	-7738
▁maafa	-7739
▁Msaidizi	-7740
hema	-7741
▁Zia	-7742
tanzania	-7743
▁DRC	-7744
▁kubuni	-7745
▁Muse	-7746
END	-7747
▁MARA	-7748
riginal	-7749
indwa	-7750
hitimu	-7751
▁taa	-7752
▁ob	-7753
▁amewataka	-7754
▁Simiyu	-7755
▁DIA	-7756
▁Overview	-7757
▁op	-7758
▁tumbo	-7759
▁sekondari	-7760
▁tuka	-7761
DHI	-7762
ambiwa	-7763
▁Yaliyomo	-7764
▁(39	-7765
▁vipya	-7766
▁usafiri	-7767
▁URL	-7768
▁Usafi	-7769
dhaa	-7770
▁mli	-7771
cco	-7772
senal	-7773
▁Massanda	-7774
saka	-7775
▁chenye	-7776
▁products	-7777
semaji	-7778
▁Ebola	-7779
▁multi	-7780
한국	-7781
▁waliyo	-7782
▁kaboni	-7783
▁atu	-7784
fuate	-7785
▁Gover	-7786
▁script	-7787
▁atta	-7788
kombo	-7789
▁Sensa	-7790
.[	-7791
▁chat	-7792
diliano	-7793
ogo	-7794
RASA	-7795
▁Kanusho	-7796
ESHI	-7797
▁Ministry	-7798
▁Pen	-7799
▁WATOTO	-7800
▁Chri	-7801
▁MTAA	-7802
▁Saba	-7803
▁Sheikh	-7804
▁Ado	-7805
çe	-7806
▁Majadiliano	-7807
▁MAISHA	-7808
▁Serengeti	-7809
▁mbunge	-7810
ux	-7811
▁Love	-7812
gizaji	-7813
▁access	-7814
rit	-7815
▁again	-7816
▁wizi	-7817
gogo	-7818
rakati	-7819
▁mto	-7820
▁Ele	-7821
isini	-7822
▁mipaka	-7823
▁Mahi	-7824
▁mach	-7825
▁mwenyekiti	-7826
bana	-7827
▁TC	-7828
bila	-7829
TEMBE	-7830
tus	-7831
▁CHE	-7832
▁Hiyo	-7833
Co	-7834
한국어	-7835
▁Jakaya	-7836
CIA	-7837
▁Mary	-7838
▁Rating	-7839
▁wapinzani	-7840
tent	-7841
▁:-	-7842
▁him	-7843
▁Marathon	-7844
ONGEZA	-7845
▁ec	-7846
side	-7847
essages	-7848
-201	-7849
▁Mbio	-7850
▁Somalia	-7851
▁mkakati	-7852
kusudi	-7853
▁Maafisa	-7854
▁watakao	-7855
vis	-7856
▁nim	-7857
artment	-7858
ex	-7859
▁liki	-7860
▁Uwekezaji	-7861
BID	-7862
▁Mohammed	-7863
limani	-7864
▁ready	-7865
▁mfuko	-7866
▁MAO	-7867
RAN	-7868
▁simple	-7869
bic	-7870
zana	-7871
▁jela	-7872
▁ste	-7873
▁SASA	-7874
▁(₹	-7875
▁Mwongozo	-7876
▁VPL	-7877
▁tam	-7878
▁swala	-7879
heshimu	-7880
▁within	-7881
▁misa	-7882
himiza	-7883
layhi	-7884
tekelezwa	-7885
kovu	-7886
kira	-7887
▁Italiano	-7888
mpa	-7889
▁Sur	-7890
▁millardayo	-7891
▁bin	-7892
llo	-7893
▁jipya	-7894
▁cam	-7895
▁around	-7896
emic	-7897
▁Ibada	-7898
futaji	-7899
TATU	-7900
ward	-7901
▁screen	-7902
▁(36)	-7903
mas	-7904
rite	-7905
▁Mhandisi	-7906
edy	-7907
▁Chang	-7908
▁Auto	-7909
▁Good	-7910
▁Mapato	-7911
▁tuhuma	-7912
Le	-7913
▁say	-7914
▁place	-7915
▁leseni	-7916
▁kusisimua	-7917
▁uhai	-7918
ssoci	-7919
▁Author	-7920
▁Time	-7921
ingilia	-7922
▁words	-7923
▁MKOANI	-7924
shikiliwa	-7925
Today	-7926
onea	-7927
▁Replies	-7928
▁Yehova	-7929
ENGE	-7930
illard	-7931
▁Pakistan	-7932
ason	-7933
pic	-7934
▁BAADA	-7935
▁anam	-7936
▁MAZ	-7937
hususi	-7938
Shi	-7939
▁needs	-7940
teknokona	-7941
▁(36	-7942
gento	-7943
▁including	-7944
▁Seif	-7945
▁Por	-7946
▁Hong	-7947
▁VOA	-7948
▁Ethiopia	-7949
▁Uwezo	-7950
▁Alikiba	-7951
irs	-7952
ugu	-7953
▁Mkataba	-7954
wapa	-7955
▁mia	-7956
▁inaonyesha	-7957
PP	-7958
▁kuamua	-7959
▁maarifa	-7960
▁ushahidi	-7961
▁Redio	-7962
▁fil	-7963
shughulikia	-7964
▁imesema	-7965
ürkçe	-7966
masi	-7967
▁West	-7968
andarasi	-7969
tech	-7970
▁Moshi	-7971
▁Italia	-7972
Wazalendo	-7973
79	-7974
LS	-7975
vert	-7976
▁Ua	-7977
▁ai	-7978
▁Sepetu	-7979
▁Unguja	-7980
▁mema	-7981
▁Albert	-7982
LAMU	-7983
▁sele	-7984
Atom	-7985
▁popote	-7986
▁Kat	-7987
▁KILA	-7988
llam	-7989
▁aji	-7990
▁bwana	-7991
fanikisha	-7992
▁wafuasi	-7993
java	-7994
tesi	-7995
rura	-7996
▁simba	-7997
▁Bahati	-7998
▁Yetu	-7999
82	-8000
ab	-8001
▁michuano	-8002
ources	-8003
▁MAJA	-8004
▁utapokea	-8005
▁MSA	-8006
puko	-8007
▁masoko	-8008
inywaji	-8009
▁Chini	-8010
aminifu	-8011
rançais	-8012
▁kupinga	-8013
koma	-8014
▁assist	-8015
▁dhamira	-8016
63	-8017
fficial	-8018
▁Sukuma	-8019
▁CLI	-8020
▁uf	-8021
ska	-8022
▁Jay	-8023
shua	-8024
▁Ibrahim	-8025
uruga	-8026
BN	-8027
▁$3	-8028
▁makao	-8029
▁add	-8030
▁Mchezo	-8031
▁MAMA	-8032
▁Kutokana	-8033
▁XML	-8034
▁daraja	-8035
geu	-8036
▁Kur	-8037
▁Wash	-8038
▁(45	-8039
▁Congo	-8040
▁Sham	-8041
▁Kali	-8042
elfu	-8043
▁kikamilifu	-8044
▁sigara	-8045
LOJIA	-8046
▁mwanaume	-8047
▁Wangu	-8048
▁Arsenal	-8049
▁mikakati	-8050
paji	-8051
amiwa	-8052
▁reli	-8053
()	-8054
dical	-8055
▁tan	-8056
▁3:	-8057
▁Uhandisi	-8058
▁Are	-8059
uncil	-8060
silisho	-8061
▁respon	-8062
uwa	-8063
▁baraza	-8064
▁class	-8065
KITI	-8066
▁NEC	-8067
ature	-8068
DM	-8069
▁urefu	-8070
▁atakaye	-8071
Pro	-8072
▁mwishoni	-8073
ctive	-8074
risho	-8075
▁Wateja	-8076
▁Special	-8077
KUTANA	-8078
▁mfululizo	-8079
▁Acad	-8080
▁anataka	-8081
▁Ten	-8082
▁Est	-8083
▁toleo	-8084
▁nyama	-8085
▁zilizopita	-8086
toni	-8087
ZAM	-8088
▁KWANZA	-8089
▁Dra	-8090
▁Milest	-8091
09	-8092
▁Moyo	-8093
▁maziwa	-8094
▁mbadala	-8095
panish	-8096
▁usafi	-8097
▁Looking	-8098
yoka	-8099
▁nywele	-8100
FYA	-8101
APK	-8102
▁Jaribu	-8103
▁kiungo	-8104
▁malaika	-8105
▁中文	-8106
▁vari	-8107
▁PlaySto	-8108
▁NGU	-8109
DB	-8110
▁Makonda	-8111
▁CAF	-8112
ال	-8113
▁Mbili	-8114
amusi	-8115
▁cent	-8116
▁uny	-8117
▁Utambulisho	-8118
07	-8119
situ	-8120
▁power	-8121
▁uwepo	-8122
KUWA	-8123
tima	-8124
▁each	-8125
ely	-8126
▁ujao	-8127
ZIBAR	-8128
▁NEW	-8129
Eng	-8130
umbo	-8131
ufaika	-8132
▁mili	-8133
▁Tru	-8134
▁think	-8135
zishi	-8136
▁SOMO	-8137
▁child	-8138
/=	-8139
▁did	-8140
▁Mabingwa	-8141
▁Les	-8142
NET	-8143
emen	-8144
lsea	-8145
▁Kamishna	-8146
kabiliwa	-8147
TZ	-8148
▁Charles	-8149
▁KIMATAIFA	-8150
▁wanasema	-8151
ootball	-8152
▁needed	-8153
▁Brazil	-8154
▁shambu	-8155
▁JUU	-8156
▁2022.	-8157
-5	-8158
▁PE	-8159
ingu	-8160
ESCO	-8161
▁Donald	-8162
▁ang	-8163
▁ini	-8164
▁mkewe	-8165
fit	-8166
seme	-8167
APKs	-8168
▁Bul	-8169
reAPKs	-8170
PlayStoreAPKs	-8171
chie	-8172
INDI	-8173
▁cookie	-8174
▁NOT	-8175
▁Mtaa	-8176
viewed	-8177
▁Kampeni	-8178
JANA	-8179
▁met	-8180
▁kocha	-8181
geuka	-8182
▁Wanaume	-8183
▁dhamana	-8184
▁AC	-8185
ak	-8186
8,	-8187
tax	-8188
▁Mah	-8189
liasili	-8190
▁hasira	-8191
▁Uongozi	-8192
zua	-8193
▁Town	-8194
▁atoa	-8195
▁flash	-8196
▁njaa	-8197
▁wanavyo	-8198
DAO	-8199
▁bar	-8200
▁OFISI	-8201
▁better	-8202
enger	-8203
▁below	-8204
▁Ent	-8205
MISHI	-8206
▁knowledge	-8207
wat	-8208
down	-8209
▁uanze	-8210
angalie	-8211
▁property	-8212
WAKE	-8213
▁Flo	-8214
hasibu	-8215
▁kifa	-8216
MAA	-8217
dustry	-8218
▁Store	-8219
▁Illustr	-8220
▁Board	-8221
angulia	-8222
▁ngono	-8223
▁kumuajiri	-8224
▁betri	-8225
lip	-8226
▁Oper	-8227
▁NAFASI	-8228
FUTA	-8229
shana	-8230
▁niaba	-8231
engenezo	-8232
21)	-8233
ungi	-8234
▁because	-8235
▁Idadi	-8236
rge	-8237
▁Gavana	-8238
▁Ruvuma	-8239
ruma	-8240
”,	-8241
▁pato	-8242
▁alb	-8243
lazimika	-8244
▁mikutano	-8245
▁uendeshaji	-8246
▁Who	-8247
▁Vile	-8248
▁Mume	-8249
▁portfolio	-8250
▁Nishati	-8251
▁Templates	-8252
lf	-8253
ctory	-8254
sabab	-8255
▁Dhidi	-8256
▁pl	-8257
ference	-8258
▁Engine	-8259
win	-8260
tego	-8261
▁halafu	-8262
▁vyenye	-8263
▁Created	-8264
▁Vichwa	-8265
▁kij	-8266
bidhi	-8267
▁Jubile	-8268
▁vikwazo	-8269
▁hawaja	-8270
▁Mafanikio	-8271
▁sekunded	-8272
▁sms	-8273
▁Alama	-8274
▁Sifa	-8275
stan	-8276
aga	-8277
▁~	-8278
▁kikundi	-8279
▁gra	-8280
essary	-8281
▁Mimba	-8282
▁Run	-8283
▁Let	-8284
Afrika	-8285
kima	-8286
▁kujaribu	-8287
▁MySQL	-8288
ire	-8289
▁Sco	-8290
HIDI	-8291
DILI	-8292
▁Mitindo	-8293
▁Artists	-8294
ungana	-8295
▁Filed	-8296
itizen	-8297
▁(50	-8298
▁HIZI	-8299
▁Tsh	-8300
▁KUTOA	-8301
dward	-8302
▁ZANZIBAR	-8303
▁format	-8304
▁Huyu	-8305
▁image	-8306
jikita	-8307
▁Save	-8308
▁kuokoa	-8309
▁ufungu	-8310
▁Lit	-8311
▁Joto	-8312
▁tips	-8313
▁upasuaji	-8314
BITI	-8315
▁(49)	-8316
▁Champions	-8317
MBALI	-8318
▁Stop	-8319
lr	-8320
▁Malaika	-8321
▁kusikia	-8322
▁Ruka	-8323
▁Mini	-8324
▁mabao	-8325
▁Office	-8326
▁something	-8327
pepo	-8328
▁wokovu	-8329
▁edu	-8330
▁yenyewe	-8331
▁Kij	-8332
▁Wazee	-8333
▁KILIMO	-8334
yoo	-8335
▁MAKALA	-8336
▁call	-8337
▁Kuto	-8338
▁Maka	-8339
▁wavuti	-8340
▁150	-8341
▁Mmoja	-8342
hadhari	-8343
▁being	-8344
elevisheni	-8345
▁dada	-8346
▁Hapo	-8347
dcast	-8348
▁Tumia	-8349
▁FU	-8350
ONDA	-8351
▁uto	-8352
▁AJALI	-8353
▁Jipya	-8354
▁MAMBO	-8355
kubaliana	-8356
▁Kweli	-8357
▁WAKO	-8358
ulation	-8359
furu	-8360
▁Analy	-8361
RADI	-8362
▁sure	-8363
68	-8364
welekeo	-8365
ANG	-8366
▁Kingdom	-8367
▁sales	-8368
▁ufisadi	-8369
▁North	-8370
▁marufuku	-8371
▁SAMIA	-8372
ZU	-8373
▁Nani	-8374
elea	-8375
▁jibu	-8376
lishwa	-8377
▁Kikosi	-8378
▁العربية	-8379
▁Welcome	-8380
eshu	-8381
▁dhana	-8382
▁mingine	-8383
▁Register	-8384
▁Fore	-8385
▁line	-8386
▁mwingi	-8387
KUKU	-8388
For	-8389
▁Phi	-8390
ace	-8391
inya	-8392
▁Kumbuka	-8393
▁Millard	-8394
fini	-8395
▁Vir	-8396
▁local	-8397
▁Chakula	-8398
▁Chelsea	-8399
▁mich	-8400
▁Malay	-8401
▁51	-8402
onia	-8403
/#	-8404
▁Ord	-8405
▁KUTU	-8406
Swalla	-8407
uble	-8408
▁inclu	-8409
waa	-8410
▁usawa	-8411
▁Sekondari	-8412
▁asiye	-8413
nical	-8414
▁jumbe	-8415
▁Den	-8416
▁deliver	-8417
▁Ndugai	-8418
▁Uchapa	-8419
▁Wazazi	-8420
ingizaji	-8421
▁Sene	-8422
unication	-8423
atus	-8424
saini	-8425
atal	-8426
▁UWE	-8427
tenga	-8428
▁KUPI	-8429
tafu	-8430
▁monoksidi	-8431
▁Foundation	-8432
video	-8433
▁kifungo	-8434
▁Songs	-8435
▁ab	-8436
▁kuwasilisha	-8437
uali	-8438
▁Gari	-8439
▁(44	-8440
▁Can	-8441
inishwa	-8442
gga	-8443
anua	-8444
kish	-8445
▁huja	-8446
tumbu	-8447
▁Asante	-8448
etnam	-8449
▁mtindo	-8450
▁current	-8451
unganisha	-8452
▁kujiuzulu	-8453
wakati	-8454
6,	-8455
73	-8456
cka	-8457
▁NYU	-8458
▁Msa	-8459
▁Ruvu	-8460
▁archi	-8461
▁kuwekeza	-8462
▁bao	-8463
▁MICHU	-8464
▁mafundisho	-8465
▁WANAWAKE	-8466
▁inatoa	-8467
▁Maarufu	-8468
iskeli	-8469
shtaka	-8470
FM	-8471
cc	-8472
UNIA	-8473
tage	-8474
▁AZAM	-8475
▁manufaa	-8476
▁Cal	-8477
uji	-8478
▁HD	-8479
▁elfu	-8480
hayo	-8481
▁waa	-8482
▁Books	-8483
onyeshwa	-8484
NOLOJIA	-8485
pungua	-8486
▁labda	-8487
▁Lad	-8488
tandard	-8489
▁even	-8490
▁Bubble	-8491
INY	-8492
▁wahusika	-8493
▁MUSIC	-8494
▁kumwa	-8495
kebisho	-8496
▁Eli	-8497
▁vikali	-8498
brary	-8499
▁IJU	-8500
▁MIA	-8501
▁lilikuwa	-8502
So	-8503
▁42	-8504
dies	-8505
ython	-8506
▁Gemu	-8507
▁2023	-8508
▁zipo	-8509
▁WADAU	-8510
▁Muajiri	-8511
ANE	-8512
▁organi	-8513
kane	-8514
tamani	-8515
▁Mbele	-8516
▁kutimiza	-8517
▁jinsia	-8518
layu	-8519
▁kingine	-8520
shia	-8521
▁wanne	-8522
▁Fur	-8523
▁ongezeko	-8524
▁Load	-8525
▁Uchapasi	-8526
▁CAD	-8527
▁iliyowekwa	-8528
▁sadaka	-8529
▁matatu	-8530
▁History	-8531
▁Tembelea	-8532
anyara	-8533
waya	-8534
▁10.	-8535
▁same	-8536
▁kikuu	-8537
LIYO	-8538
Biashara	-8539
fr	-8540
eshindwa	-8541
▁Mach	-8542
▁para	-8543
▁Bang	-8544
▁robo	-8545
▁Mafuta	-8546
▁Blogu	-8547
▁recei	-8548
endelevu	-8549
▁error	-8550
▁light	-8551
▁kubeba	-8552
▁madawa	-8553
▁Jubilee	-8554
andikisha	-8555
▁Featured	-8556
▁requ	-8557
kusanyiko	-8558
joy	-8559
ests	-8560
▁Council	-8561
funuo	-8562
▁zenu	-8563
▁Javascript	-8564
▁kuruka	-8565
▁private	-8566
Ad	-8567
▁model	-8568
▁war	-8569
▁ongeza	-8570
pand	-8571
FANI	-8572
▁impro	-8573
:17	-8574
NAO	-8575
KOBA	-8576
atoliki	-8577
athirika	-8578
jibika	-8579
▁kuvutia	-8580
▁#1	-8581
▁NENO	-8582
▁RAS	-8583
▁nakala	-8584
▁ukaguzi	-8585
▁supp	-8586
▁CLICK	-8587
kadirio	-8588
endana	-8589
limisha	-8590
▁clients	-8591
bin	-8592
▁Gala	-8593
▁%	-8594
▁Sita	-8595
JO	-8596
▁watendaji	-8597
▁wawe	-8598
chezwa	-8599
▁AJILI	-8600
▁Milestones	-8601
MBEA	-8602
TABA	-8603
▁lao	-8604
oop	-8605
yesho	-8606
▁vyanzo	-8607
ân	-8608
▁kifungu	-8609
onzo	-8610
▁Miss	-8611
MW	-8612
▁ulipo	-8613
msingi	-8614
▁mchanganyiko	-8615
reet	-8616
ficha	-8617
▁masaa	-8618
▁Politics	-8619
-4	-8620
▁ب	-8621
▁AT	-8622
▁Player	-8623
xx	-8624
▁mbi	-8625
▁mgodi	-8626
▁mashambulizi	-8627
▁Cons	-8628
▁Museveni	-8629
▁try	-8630
▁sallam	-8631
rive	-8632
▁Vistawishi	-8633
hh	-8634
English	-8635
▁wanayo	-8636
eld	-8637
▁Pokea	-8638
anyasa	-8639
vinjari	-8640
▁maandalizi	-8641
ators	-8642
▁hisa	-8643
alayhi	-8644
wajima	-8645
▁Ziara	-8646
▁kumpa	-8647
▁Mjumbe	-8648
▁MKUTANO	-8649
amaha	-8650
Mwenye	-8651
bihi	-8652
▁anayo	-8653
▁kusafiri	-8654
yed	-8655
Kona	-8656
61	-8657
▁Aliyekuwa	-8658
▁Slaa	-8659
TEMBELEA	-8660
▁requirement	-8661
▁ARU	-8662
▁Melayu	-8663
▁human	-8664
▁Muh	-8665
▁utulivu	-8666
▁nanyi	-8667
▁sanaa	-8668
▁Most	-8669
▁Studio	-8670
▁Mkito	-8671
▁kwanini	-8672
▁Namna	-8673
▁Rig	-8674
onesho	-8675
▁kimya	-8676
▁Stay	-8677
▁HIS	-8678
▁level	-8679
thibitishwa	-8680
ntax	-8681
▁watakuwa	-8682
▁umaarufu	-8683
▁MKOA	-8684
rikalini	-8685
▁Uli	-8686
▁After	-8687
auti	-8688
▁District	-8689
▁kufanikiwa	-8690
▁WIKI	-8691
▁kulikuwa	-8692
out	-8693
▁ins	-8694
▁Pycck	-8695
▁latest	-8696
▁$250	-8697
▁wawekezaji	-8698
▁41	-8699
▁send	-8700
▁Hausa	-8701
tafsiriwa	-8702
FUA	-8703
▁kigaidi	-8704
eneza	-8705
▁mchanga	-8706
▁Tumb	-8707
▁school	-8708
▁Adventure	-8709
▁Community	-8710
cas	-8711
stal	-8712
REE	-8713
▁Wasichana	-8714
▁075	-8715
▁wakam	-8716
andamano	-8717
▁TeknoKona	-8718
▁madarasa	-8719
▁sent	-8720
":	-8721
▁Hen	-8722
▁Kijiji	-8723
tetea	-8724
▁Jiko	-8725
wasilisha	-8726
▁Wal	-8727
▁Haru	-8728
▁kipato	-8729
ambazi	-8730
▁Samahani	-8731
▁Tha	-8732
▁always	-8733
atta	-8734
▁Buy	-8735
cr	-8736
▁Kusafisha	-8737
andamana	-8738
▁country	-8739
page	-8740
▁wapya	-8741
sition	-8742
▁ngoma	-8743
Lat	-8744
▁<	-8745
ếng	-8746
▁while	-8747
▁kusini	-8748
▁SELE	-8749
▁Rasmi	-8750
▁Maalim	-8751
▁2021,	-8752
▁Kip	-8753
رد	-8754
▁Cla	-8755
▁Photos	-8756
Al	-8757
▁Wala	-8758
▁Edward	-8759
▁channel	-8760
LEO	-8761
mume	-8762
MES	-8763
▁KSh	-8764
▁hamu	-8765
▁theme	-8766
▁Gha	-8767
▁Mse	-8768
dina	-8769
▁Uvu	-8770
▁Thamani	-8771
elekeza	-8772
▁Nye	-8773
▁Russia	-8774
▁hakuwa	-8775
▁Watum	-8776
vg	-8777
▁Uz	-8778
husa	-8779
▁Slo	-8780
ob	-8781
▁dire	-8782
▁eff	-8783
rudisha	-8784
GRA	-8785
▁Pla	-8786
▁SER	-8787
▁Membe	-8788
▁kuwezeshwa	-8789
▁Developer	-8790
pose	-8791
▁cour	-8792
hisho	-8793
▁Bukoba	-8794
kete	-8795
ctures	-8796
punguza	-8797
istration	-8798
▁(@	-8799
Soma	-8800
baka	-8801
ode	-8802
▁Hindi	-8803
verage	-8804
idget	-8805
▁pur	-8806
▁close	-8807
▁Gol	-8808
▁cost	-8809
yd	-8810
▁wachache	-8811
▁2016.	-8812
▁Bec	-8813
ences	-8814
sters	-8815
▁enda	-8816
▁kind	-8817
▁Barabara	-8818
▁Architecture	-8819
etu	-8820
▁Ushauri	-8821
▁Hire	-8822
AL	-8823
▁MBALIMBALI	-8824
tawala	-8825
▁GOS	-8826
▁click	-8827
takazo	-8828
▁DUNIA	-8829
▁EA	-8830
▁uv	-8831
▁KENYA	-8832
▁mwalimu	-8833
ongezea	-8834
hukumiwa	-8835
▁Tatu	-8836
▁CV	-8837
▁Ndio	-8838
▁wema	-8839
▁Kiarabu	-8840
▁Rigathi	-8841
▁yalikuwa	-8842
▁́	-8843
-05	-8844
▁Shooting	-8845
▁Cas	-8846
▁::	-8847
▁Dola	-8848
vy	-8849
turn	-8850
▁Far	-8851
▁template	-8852
▁tendo	-8853
▁Said	-8854
adhimisha	-8855
▁ur	-8856
▁Mor	-8857
▁Baby	-8858
tumikia	-8859
▁udhibiti	-8860
bate	-8861
umbuzi	-8862
lipwa	-8863
minal	-8864
ensi	-8865
▁Op	-8866
▁Zab	-8867
ingo	-8868
.(	-8869
▁Yemen	-8870
▁Spi	-8871
826	-8872
▁Or	-8873
▁Usaidizi	-8874
linganisha	-8875
▁maadhimisho	-8876
PC	-8877
ecessary	-8878
▁Uko	-8879
▁Order	-8880
▁harakati	-8881
▁mzunguko	-8882
lines	-8883
yoyozi	-8884
leti	-8885
▁Abda	-8886
▁AFRIKA	-8887
ZINDUA	-8888
▁updates	-8889
Da	-8890
INGA	-8891
▁Sele	-8892
▁Muundo	-8893
ESHO	-8894
fara	-8895
▁Emmanuel	-8896
▁price	-8897
▁Binadamu	-8898
▁Wengi	-8899
▁Advertisements	-8900
zuka	-8901
▁Road	-8902
▁uses	-8903
https	-8904
ulture	-8905
zimisha	-8906
ql	-8907
feed	-8908
▁inakuwa	-8909
ford	-8910
hutubia	-8911
▁Masuala	-8912
funika	-8913
▁Chris	-8914
hirisha	-8915
▁mahojiano	-8916
▁waja	-8917
▁takribani	-8918
pital	-8919
▁daily	-8920
▁vyao	-8921
karibia	-8922
▁JIJINI	-8923
▁lini	-8924
KWE	-8925
▁MKA	-8926
Edit	-8927
▁agizo	-8928
▁..	-8929
▁msha	-8930
''	-8931
LLA	-8932
kusaidia	-8933
▁wenyeji	-8934
▁kufuta	-8935
▁ukuaji	-8936
▁kutembea	-8937
▁Mata	-8938
LIZI	-8939
▁ios	-8940
MIZI	-8941
▁kiotomati	-8942
rus	-8943
rai	-8944
ifahamu	-8945
▁Park	-8946
▁care	-8947
▁ubunifu	-8948
▁MIAKA	-8949
▁Theme	-8950
▁mzigo	-8951
▁shukrani	-8952
▁napenda	-8953
▁Tumblr	-8954
▁AMBA	-8955
▁VER	-8956
▁Awamu	-8957
▁Mbu	-8958
takuwa	-8959
fiwa	-8960
▁Kub	-8961
pond	-8962
▁Daudi	-8963
bas	-8964
▁SMS	-8965
▁Racing	-8966
▁MWAN	-8967
▁anavyo	-8968
RM	-8969
▁Er	-8970
▁JINSI	-8971
9,	-8972
▁Mkazi	-8973
iled	-8974
▁Marejeo	-8975
▁Tutorial	-8976
▁hauna	-8977
col	-8978
▁Van	-8979
▁Unatafuta	-8980
▁baraka	-8981
▁hasara	-8982
gos	-8983
bainisha	-8984
chekesho	-8985
▁TANO	-8986
fikisha	-8987
▁wataalam	-8988
▁misingi	-8989
Tuna	-8990
▁Gwajima	-8991
▁Plus	-8992
▁UKIM	-8993
▁Sirro	-8994
▁Beauty	-8995
▁kupima	-8996
vision	-8997
▁kijeshi	-8998
▁Moses	-8999
▁MASWA	-9000
▁during	-9001
ingili	-9002
▁kushughulikia	-9003
▁come	-9004
▁salamu	-9005
▁endelevu	-9006
tosha	-9007
▁Network	-9008
HC	-9009
erti	-9010
▁tr	-9011
▁Kisu	-9012
▁Official	-9013
sahau	-9014
▁Students	-9015
ented	-9016
tii	-9017
bwana	-9018
▁muungano	-9019
LD	-9020
▁Lib	-9021
mbe	-9022
▁Soko	-9023
▁Bahasa	-9024
bir	-9025
:16	-9026
▁NGO	-9027
▁Mola	-9028
▁success	-9029
▁(32	-9030
▁Tena	-9031
gular	-9032
He	-9033
ishani	-9034
▁tafuta	-9035
cell	-9036
▁mapendekezo	-9037
▁few	-9038
▁KUMI	-9039
▁Movie	-9040
Shindano	-9041
lis	-9042
OMBA	-9043
▁Christi	-9044
▁fungu	-9045
▁kukimbia	-9046
▁inaendelea	-9047
▁Science	-9048
▁Hayo	-9049
ancial	-9050
▁Chinese	-9051
▁Aji	-9052
▁Umuhimu	-9053
▁Win	-9054
ZAZI	-9055
▁shetani	-9056
▁uhalifu	-9057
kimbia	-9058
▁BUKOBA	-9059
ined	-9060
▁ufafanuzi	-9061
umzo	-9062
▁Watumishi	-9063
▁kibinadamu	-9064
words	-9065
▁kwenu	-9066
▁Tri	-9067
▁mag	-9068
fuatiliaji	-9069
-750	-9070
▁having	-9071
chunguza	-9072
▁moyoni	-9073
duli	-9074
▁(201	-9075
▁Center	-9076
▁Jarida	-9077
▁MAD	-9078
geza	-9079
▁head	-9080
omea	-9081
rime	-9082
▁Ruby	-9083
ZAMA	-9084
cor	-9085
▁Twe	-9086
▁Kwanini	-9087
atski	-9088
▁hazina	-9089
idii	-9090
▁Kisa	-9091
▁kunywa	-9092
▁nataka	-9093
▁Hatimaye	-9094
93	-9095
yumba	-9096
▁ling	-9097
▁fadhi	-9098
una	-9099
▁Rafiki	-9100
▁wapenzi	-9101
banwa	-9102
▁हिन्दी	-9103
▁Tofauti	-9104
▁These	-9105
▁without	-9106
basi	-9107
▁Kipindi	-9108
Sengo	-9109
▁kamera	-9110
▁kifedha	-9111
unzaji	-9112
▁iliyofanyika	-9113
▁CONTA	-9114
STI	-9115
enki	-9116
▁hazifanyi	-9117
▁Enterprise	-9118
▁mwake	-9119
chapisha	-9120
▁Pete	-9121
▁Imeanza	-9122
-8	-9123
key	-9124
▁both	-9125
▁misaada	-9126
▁Tan	-9127
▁shuleni	-9128
vanny	-9129
bishwa	-9130
▁MICHUZI	-9131
time	-9132
gori	-9133
Be	-9134
▁juzi	-9135
ombozi	-9136
MASHA	-9137
dukuzi	-9138
forman	-9139
UTI	-9140
▁Agano	-9141
▁Imam	-9142
▁mzazi	-9143
Ar	-9144
▁Manyara	-9145
ESS	-9146
▁mawe	-9147
rypto	-9148
▁meet	-9149
▁pombe	-9150
▁Published	-9151
dilifu	-9152
▁State	-9153
▁mioyo	-9154
▁kitongoji	-9155
▁AME	-9156
▁Khali	-9157
▁lishe	-9158
tambulisha	-9159
41	-9160
labo	-9161
▁Nne	-9162
anced	-9163
jiandaa	-9164
umisha	-9165
▁excel	-9166
▁kuwajibika	-9167
gilia	-9168
jika	-9169
▁Ada	-9170
▁kibinafsi	-9171
▁Mc	-9172
▁yai	-9173
▁1998	-9174
▁Plan	-9175
beth	-9176
▁building	-9177
▁bring	-9178
wanjani	-9179
▁pengine	-9180
▁Notify	-9181
▁Inaisha	-9182
CTION	-9183
soa	-9184
▁hum	-9185
VIDEO	-9186
▁mwen	-9187
20)	-9188
ripotiwa	-9189
▁Republic	-9190
rop	-9191
▁order	-9192
TABU	-9193
▁MTOTO	-9194
▁Mer	-9195
inikizo	-9196
shawishi	-9197
▁Distribu	-9198
ifanya	-9199
▁vigumu	-9200
ână	-9201
▁huwezi	-9202
▁iliyotolewa	-9203
lid	-9204
▁Kil	-9205
▁Zambia	-9206
▁Kumi	-9207
inue	-9208
▁zana	-9209
vatski	-9210
TANGAZA	-9211
▁65	-9212
▁ULAYA	-9213
▁change	-9214
▁Wimbo	-9215
▁UHA	-9216
▁Ukumbi	-9217
▁MAHAKAMA	-9218
▁Call	-9219
Wasilisho	-9220
Mat	-9221
buari	-9222
▁inajumuisha	-9223
▁fix	-9224
▁Papa	-9225
▁mzee	-9226
▁BOFYA	-9227
▁wakubwa	-9228
▁Maonyesho	-9229
বা	-9230
▁Key	-9231
amka	-9232
En	-9233
▁viwili	-9234
▁Celebri	-9235
▁tafadhali	-9236
php	-9237
▁Bio	-9238
▁umbali	-9239
▁alio	-9240
andhari	-9241
▁Roma	-9242
▁France	-9243
formance	-9244
▁vipimo	-9245
:12	-9246
▁(48)	-9247
▁Ass	-9248
▁Tano	-9249
▁First	-9250
▁Server	-9251
zozo	-9252
▁Washington	-9253
▁Obama	-9254
▁Ver	-9255
▁Qatar	-9256
▁idara	-9257
▁possi	-9258
▁4.8	-9259
▁Awali	-9260
▁air	-9261
UNGENI	-9262
chochea	-9263
▁kufahamu	-9264
Tok	-9265
▁MIKO	-9266
▁53	-9267
▁ve	-9268
▁mme	-9269
amina	-9270
▁results	-9271
dacom	-9272
▁ع	-9273
▁Febuari	-9274
▁kupanga	-9275
laba	-9276
▁400	-9277
324	-9278
▁Mtazamo	-9279
atement	-9280
▁kumali	-9281
▁$20	-9282
▁haramu	-9283
uluhisho	-9284
ortuguese	-9285
▁Afghanistan	-9286
wiki	-9287
▁akisa	-9288
kpa	-9289
lona	-9290
anzilishi	-9291
▁magumu	-9292
▁Only	-9293
autiful	-9294
shikilia	-9295
▁Pari	-9296
▁Son	-9297
furushi	-9298
▁vikundi	-9299
▁uharibifu	-9300
▁tisa	-9301
izi	-9302
▁today	-9303
▁Reviewed	-9304
▁aya	-9305
▁Leb	-9306
▁doing	-9307
JAMII	-9308
▁Tour	-9309
▁yawa	-9310
▁angalau	-9311
▁Style	-9312
▁YALIYO	-9313
▁kuongea	-9314
ages	-9315
▁lu	-9316
▁Ukweli	-9317
▁BUNGENI	-9318
▁Blue	-9319
tifa	-9320
LISHA	-9321
hul	-9322
die	-9323
▁Tar	-9324
▁endapo	-9325
▁adui	-9326
▁MAOMBI	-9327
kup	-9328
▁written	-9329
▁HUU	-9330
zozi	-9331
▁Bustani	-9332
fahami	-9333
jaribio	-9334
rati	-9335
jan	-9336
pty	-9337
▁VIJANA	-9338
▁mbu	-9339
▁men	-9340
▁Mati	-9341
▁tusi	-9342
▁simi	-9343
shuka	-9344
:11	-9345
Mungu	-9346
emea	-9347
▁Maliasili	-9348
imarisha	-9349
▁Bado	-9350
Fa	-9351
gom	-9352
▁kando	-9353
ptions	-9354
▁perfect	-9355
CU	-9356
MOND	-9357
▁Ky	-9358
▁internet	-9359
▁mm	-9360
▁Villa	-9361
▁meli	-9362
▁Box	-9363
▁MJINI	-9364
▁Kuongeza	-9365
▁Tukio	-9366
লা	-9367
cking	-9368
laani	-9369
fah	-9370
▁Michango	-9371
▁upungufu	-9372
▁Mto	-9373
▁VYU	-9374
spot	-9375
▁fupi	-9376
▁Galaxy	-9377
▁vyake	-9378
angusha	-9379
▁kurasa	-9380
TORIA	-9381
▁utapata	-9382
94	-9383
OO	-9384
▁NCHI	-9385
▁Kifaransa	-9386
swer	-9387
Ter	-9388
▁Fadhi	-9389
geukia	-9390
▁bidding	-9391
idh	-9392
jesha	-9393
YAMA	-9394
hesa	-9395
▁apk	-9396
▁Mgombea	-9397
ricans	-9398
▁vistawishi	-9399
▁Ghana	-9400
▁real	-9401
বাং	-9402
▁Cat	-9403
▁Government	-9404
বাংলা	-9405
▁sumu	-9406
▁makali	-9407
▁Tang	-9408
96	-9409
▁sound	-9410
online	-9411
▁kipya	-9412
▁Mwanasheria	-9413
▁hadhi	-9414
wordpress	-9415
ANGU	-9416
tiwa	-9417
▁ban	-9418
erusa	-9419
jaji	-9420
nect	-9421
▁Id	-9422
53	-9423
LAR	-9424
▁JS	-9425
jamin	-9426
holanzi	-9427
vita	-9428
▁NJIA	-9429
kpaï	-9430
ville	-9431
undaji	-9432
lete	-9433
▁Off	-9434
▁kitengo	-9435
▁visitors	-9436
liko	-9437
ondoni	-9438
ute	-9439
▁story	-9440
lee	-9441
KULU	-9442
INYANGA	-9443
ENG	-9444
2500	-9445
▁source	-9446
kpaïH	-9447
▁POLISI	-9448
via	-9449
▁games	-9450
▁hufanya	-9451
tupa	-9452
About	-9453
▁ilipo	-9454
▁TZ	-9455
▁ly	-9456
TUBE	-9457
crow	-9458
▁日本語	-9459
▁Pekee	-9460
▁kutenda	-9461
INGINE	-9462
ongomo	-9463
▁inapo	-9464
▁those	-9465
▁inge	-9466
pes	-9467
▁market	-9468
dhamu	-9469
isasi	-9470
▁ZINA	-9471
tise	-9472
ework	-9473
▁Swala	-9474
chukuzi	-9475
▁Maegesho	-9476
▁type	-9477
▁uvuvi	-9478
zimishwa	-9479
▁bodi	-9480
▁Afrikaans	-9481
wekaji	-9482
▁Brown	-9483
▁Mauzo	-9484
▁afariki	-9485
▁original	-9486
DAY	-9487
STA	-9488
▁wanataka	-9489
MIWA	-9490
▁Mapigano	-9491
▁kukamilika	-9492
▁atua	-9493
▁kale	-9494
kpaïHcb	-9495
▁mjadala	-9496
▁Jinsia	-9497
▁nawe	-9498
▁saini	-9499
▁still	-9500
host	-9501
▁really	-9502
▁Wao	-9503
SILIANO	-9504
▁mkopo	-9505
MITED	-9506
▁kigeni	-9507
▁48	-9508
LEWA	-9509
▁MIS	-9510
▁IE	-9511
vutia	-9512
▁বাংলা	-9513
▁Kuandika	-9514
▁SHINYANGA	-9515
turbate	-9516
wing	-9517
▁majaribio	-9518
▁fol	-9519
KUMBU	-9520
▁SIRI	-9521
▁operesheni	-9522
wata	-9523
illion	-9524
▁kadhalika	-9525
DH	-9526
cated	-9527
▁Hivisasa	-9528
▁CONTACT	-9529
CS	-9530
tikio	-9531
dang	-9532
600	-9533
ujiza	-9534
▁amei	-9535
▁dharura	-9536
TTER	-9537
▁Centre	-9538
olutions	-9539
▁MAWASILIANO	-9540
▁England	-9541
▁unajua	-9542
سی	-9543
-12	-9544
:15	-9545
ZEE	-9546
▁Custo	-9547
▁Kubenea	-9548
▁Mwakilishi	-9549
▁2000	-9550
▁away	-9551
▁maduka	-9552
▁lami	-9553
▁Royal	-9554
▁vid	-9555
▁kuwajengea	-9556
elektroniki	-9557
▁Nambari	-9558
▁aibu	-9559
RTI	-9560
▁44	-9561
▁aj	-9562
▁ZAKE	-9563
▁Mbalimbali	-9564
-06	-9565
aan	-9566
▁kadri	-9567
▁mbavu	-9568
mark	-9569
embeni	-9570
▁Asilimia	-9571
demokrasia	-9572
▁MWE	-9573
▁(40	-9574
▁brand	-9575
▁specia	-9576
▁movie	-9577
▁Cookie	-9578
▁County	-9579
:2022	-9580
▁update	-9581
▁Simon	-9582
▁Hussein	-9583
▁BABA	-9584
▁images	-9585
▁mwelekeo	-9586
▁kuvunja	-9587
82)	-9588
HAM	-9589
▁unapaswa	-9590
▁kub	-9591
▁Got	-9592
onaldo	-9593
choka	-9594
▁Mbinguni	-9595
▁kazini	-9596
▁Chaturbate	-9597
turi	-9598
WANI	-9599
▁See	-9600
▁Shetani	-9601
▁IGP	-9602
▁67	-9603
▁mala	-9604
gency	-9605
uch	-9606
▁UKU	-9607
▁opport	-9608
▁ujauzito	-9609
venska	-9610
▁zitakazo	-9611
anta	-9612
▁family	-9613
▁MC	-9614
▁Mstaafu	-9615
On	-9616
:13	-9617
▁daktari	-9618
cked	-9619
▁packa	-9620
▁mashamba	-9621
RIN	-9622
▁chem	-9623
▁Hofu	-9624
▁kuongoza	-9625
dilisha	-9626
gre	-9627
Chat	-9628
sing	-9629
MG	-9630
▁nazo	-9631
▁IKULU	-9632
UNGUA	-9633
▁Hakimu	-9634
▁KOCHA	-9635
▁VERSION	-9636
ert	-9637
PYA	-9638
fault	-9639
ended	-9640
▁super	-9641
▁Wawekezaji	-9642
▁Podcast	-9643
▁String	-9644
ploma	-9645
▁mwilini	-9646
▁hat	-9647
kpaïHcbka	-9648
▁NDI	-9649
▁Atom	-9650
▁SPORT	-9651
▁Unapo	-9652
▁Emp	-9653
eruhiwa	-9654
▁10:	-9655
▁KISI	-9656
▁plugin	-9657
▁๐	-9658
▁NAO	-9659
▁utukufu	-9660
▁mapambano	-9661
▁Kichina	-9662
orsk	-9663
▁KAB	-9664
kuku	-9665
▁que	-9666
▁money	-9667
98	-9668
▁ULI	-9669
furi	-9670
▁vitanda	-9671
▁Cross	-9672
▁Chur	-9673
▁+25565	-9674
ongomovies	-9675
SHU	-9676
▁Eliza	-9677
▁never	-9678
▁Visitors	-9679
62	-9680
▁Way	-9681
yor	-9682
ZIKI	-9683
irls	-9684
▁akina	-9685
▁found	-9686
▁WOR	-9687
▁MAGONJWA	-9688
▁humu	-9689
▁UKIMWI	-9690
▁appe	-9691
▁mode	-9692
▁Wol	-9693
▁maagizo	-9694
umbua	-9695
▁bidii	-9696
elelezo	-9697
▁UKAWA	-9698
loye	-9699
▁Lady	-9700
▁lisi	-9701
▁side	-9702
▁IP	-9703
▁basic	-9704
▁Connec	-9705
▁pointi	-9706
▁chumbani	-9707
▁STO	-9708
paHH	-9709
▁изб	-9710
▁consent	-9711
▁YETU	-9712
▁Kibiti	-9713
▁Katoliki	-9714
▁kupeleka	-9715
▁SHARE	-9716
kTok	-9717
unch	-9718
▁Paper	-9719
here	-9720
▁Mipaka	-9721
▁Mashahidi	-9722
tawa	-9723
▁iliongezwa	-9724
hakikishia	-9725
puka	-9726
▁ARUSHA	-9727
▁host	-9728
SOMWA	-9729
▁YANA	-9730
▁similar	-9731
kame	-9732
Lo	-9733
omain	-9734
▁tuu	-9735
kit	-9736
▁Kikapu	-9737
▁SEK	-9738
▁kuwapatia	-9739
▁viumbe	-9740
alihi	-9741
peper	-9742
▁programming	-9743
▁vipenzi	-9744
vunia	-9745
▁Hebu	-9746
▁wagombea	-9747
▁Cro	-9748
▁ulivyo	-9749
▁fidia	-9750
bashara	-9751
▁kupi	-9752
ъл	-9753
RISHA	-9754
dole	-9755
▁gover	-9756
▁AO	-9757
▁Kris	-9758
▁madaktari	-9759
jipanga	-9760
IND	-9761
dor	-9762
▁URA	-9763
light	-9764
▁Madiwani	-9765
▁mago	-9766
katika	-9767
kumbusha	-9768
▁ABO	-9769
▁mitaa	-9770
▁mageuzi	-9771
▁Twa	-9772
▁health	-9773
▁miliki	-9774
eš	-9775
ont	-9776
nard	-9777
Matukio	-9778
▁ufalme	-9779
▁alitoa	-9780
▁Ingawa	-9781
quare	-9782
ان	-9783
▁Ugonjwa	-9784
EFA	-9785
▁Afisi	-9786
▁Ronaldo	-9787
▁kufungwa	-9788
▁ushindani	-9789
▁lingine	-9790
▁Benjamin	-9791
▁yaliyomo	-9792
▁wanahabari	-9793
▁anim	-9794
omas	-9795
▁kuvi	-9796
eština	-9797
lassic	-9798
istani	-9799
▁Yusuf	-9800
iss	-9801
▁iliyokuwa	-9802
gic	-9803
gamo	-9804
▁personal	-9805
▁PESA	-9806
angami	-9807
shtakiwa	-9808
▁LIMITED	-9809
▁mashariki	-9810
▁nyongeza	-9811
▁kipaumbele	-9812
wse	-9813
ktop	-9814
▁vis	-9815
▁NU	-9816
▁flo	-9817
▁poli	-9818
▁Sloven	-9819
rapck	-9820
▁mateso	-9821
:14	-9822
chaguo	-9823
▁TikTok	-9824
▁Rufaa	-9825
▁applic	-9826
▁studio	-9827
▁MAFUNZO	-9828
71	-9829
limi	-9830
isani	-9831
▁malalamiko	-9832
oromo	-9833
▁mizigo	-9834
▁foramu	-9835
hehe	-9836
▁empty	-9837
▁maelfu	-9838
▁tiketi	-9839
▁Pas	-9840
▁ISBN	-9841
▁sign	-9842
▁between	-9843
irth	-9844
1122	-9845
1500	-9846
angazia	-9847
-11	-9848
▁mwendo	-9849
Avg	-9850
▁stars	-9851
iadha	-9852
▁Fred	-9853
▁meno	-9854
chukulia	-9855
hum	-9856
TEST	-9857
▁Fit	-9858
▁Malipo	-9859
.5	-9860
▁UTC	-9861
jamzito	-9862
shuhudia	-9863
▁Kiwanda	-9864
▁mgonjwa	-9865
▁GG	-9866
▁Maskani	-9867
▁Mgh	-9868
▁pole	-9869
clu	-9870
▁VYUO	-9871
▁mato	-9872
amakini	-9873
▁semina	-9874
▁del	-9875
ishwe	-9876
▁client	-9877
▁Shein	-9878
▁++	-9879
▁kuv	-9880
SM	-9881
▁faini	-9882
pis	-9883
Berry	-9884
▁harusi	-9885
▁Fla	-9886
▁mamilioni	-9887
▁Libya	-9888
▁category	-9889
▁Review	-9890
▁majira	-9891
HURI	-9892
▁Wame	-9893
▁interest	-9894
▁kuruhusu	-9895
▁Art	-9896
SHIRIKI	-9897
▁Details	-9898
RUSI	-9899
fichu	-9900
▁Hakika	-9901
▁Mir	-9902
▁html	-9903
▁Mahojiano	-9904
▁Hatu	-9905
.2	-9906
▁(93	-9907
▁mapa	-9908
toe	-9909
▁Green	-9910
pambana	-9911
KULA	-9912
▁KIJAMII	-9913
▁anawa	-9914
▁Kisi	-9915
▁nyaraka	-9916
▁Team	-9917
▁zilikuwa	-9918
shikam	-9919
/2014	-9920
42	-9921
Ja	-9922
pect	-9923
:18	-9924
▁wadhamini	-9925
sehemu	-9926
▁upigaji	-9927
▁Wifi	-9928
();	-9929
rakani	-9930
▁Naomba	-9931
▁ghafla	-9932
▁MADA	-9933
▁uliyo	-9934
▁inawezekana	-9935
▁BlackBerry	-9936
▁Tabia	-9937
▁since	-9938
▁uliopo	-9939
emy	-9940
▁mahususi	-9941
▁too	-9942
▁bandari	-9943
sukuma	-9944
data	-9945
toke	-9946
▁Navigation	-9947
▁Zabunia	-9948
▁mashtaka	-9949
ula	-9950
▁KITU	-9951
!”	-9952
doa	-9953
haribika	-9954
▁Makampuni	-9955
▁Babu	-9956
▁Every	-9957
▁kika	-9958
▁Namba	-9959
▁vikao	-9960
▁Mrisho	-9961
▁Uso	-9962
324826	-9963
▁07324826	-9964
▁mwongozo	-9965
▁Tundu	-9966
▁Haji	-9967
▁Meya	-9968
tasari	-9969
▁edit	-9970
endi	-9971
▁janga	-9972
orofa	-9973
▁pichani	-9974
▁kidi	-9975
jitolea	-9976
Hi	-9977
▁Upendo	-9978
Bi	-9979
pli	-9980
:2022-09	-9981
▁kurejea	-9982
▁vikuu	-9983
hivisasa	-9984
▁features	-9985
▁MAJALIWA	-9986
▁DARASA	-9987
tangulia	-9988
401122	-9989
▁+25565401122	-9990
▁karne	-9991
▁+255654011222,	-9992
▁Creative	-9993
celona	-9994
▁Hon	-9995
yout	-9996
▁kaa	-9997
▁Kad	-9998
▁Hapana	-9999
▁undani	-10000
▁old	-10001
▁kumw	-10002
ZURI	-10003
▁swahili	-10004
▁Products	-10005
▁Kui	-10006
▁When	-10007
PH	-10008
giji	-10009
▁Kor	-10010
point	-10011
teule	-10012
▁kaka	-10013
▁huruma	-10014
▁Ph	-10015
adui	-10016
▁kil	-10017
▁non	-10018
▁favo	-10019
▁Inte	-10020
▁ah	-10021
ambie	-10022
ردو	-10023
simamisha	-10024
▁Magonjwa	-10025
pool	-10026
▁RASMI	-10027
▁hoteli	-10028
▁proble	-10029
▁Rahisi	-10030
▁expand	-10031
▁mauzo	-10032
▁اردو	-10033
▁UME	-10034
▁Mpaka	-10035
▁Zo	-10036
▁Ivan	-10037
▁stay	-10038
siti	-10039
boresho	-10040
▁Utendaji	-10041
▁ZILIZOPITA	-10042
ners	-10043
▁Remember	-10044
loni	-10045
RDB	-10046
:23	-10047
vol	-10048
elete	-10049
▁umekuwa	-10050
▁BEN	-10051
▁ukosefu	-10052
▁got	-10053
▁waanzilishi	-10054
91	-10055
▁110	-10056
▁nambari	-10057
▁mtumishi	-10058
TIBA	-10059
▁kugombea	-10060
▁Malunde	-10061
▁kukagua	-10062
too	-10063
▁Dj	-10064
▁uhifadhi	-10065
yem	-10066
vents	-10067
yasema	-10068
reak	-10069
▁Takatifu	-10070
▁kamusi	-10071
▁utakao	-10072
▁japo	-10073
▁ZILIZOSOMWA	-10074
dudu	-10075
▁Bao	-10076
▁''	-10077
▁taka	-10078
gamoyo	-10079
▁mpangilio	-10080
Bahasa	-10081
▁Test	-10082
CHAGULIWA	-10083
▁ABOUT	-10084
ttle	-10085
hispania	-10086
Sloven	-10087
▁Ufungaji	-10088
▁wanafanya	-10089
TN	-10090
▁DIAMOND	-10091
bers	-10092
▁That	-10093
▁SURA	-10094
TRA	-10095
▁sija	-10096
▁Mabula	-10097
▁akamwambia	-10098
zine	-10099
RCH	-10100
design	-10101
▁Front	-10102
▁Tafsiri	-10103
7,	-10104
▁Bit	-10105
▁Band	-10106
▁creative	-10107
amili	-10108
▁alicho	-10109
▁kuchang	-10110
▁0732482690	-10111
▁Pay	-10112
▁mtaa	-10113
▁thank	-10114
RAMA	-10115
▁Maadili	-10116
▁Matoleo	-10117
▁wanam	-10118
▁sakafu	-10119
▁LEA	-10120
▁Met	-10121
▁mak	-10122
itisha	-10123
ording	-10124
ices	-10125
islam	-10126
▁Henry	-10127
▁Furaha	-10128
▁Kujua	-10129
▁wanaoishi	-10130
▁fr	-10131
inal	-10132
▁satis	-10133
wel	-10134
▁Elizabeth	-10135
▁Mlango	-10136
▁sukari	-10137
-22	-10138
LII	-10139
▁appro	-10140
phy	-10141
▁vyeti	-10142
historia	-10143
▁enzi	-10144
▁Shughuli	-10145
wezaje	-10146
▁tanzania	-10147
▁kuchunguza	-10148
▁Askari	-10149
unities	-10150
▁Citizen	-10151
▁MFU	-10152
▁giza	-10153
▁aalihi	-10154
▁yapo	-10155
▁task	-10156
lor	-10157
pole	-10158
▁NASI	-10159
▁Risasi	-10160
56	-10161
▁Indian	-10162
▁ruhusa	-10163
▁Jamaa	-10164
chapishaji	-10165
▁madarakani	-10166
-04	-10167
▁(62)	-10168
▁inavyofanya	-10169
▁kueleza	-10170
▁ensure	-10171
▁havi	-10172
▁Pol	-10173
Swahili	-10174
▁nilivyo	-10175
▁WATA	-10176
badilishwa	-10177
tetezi	-10178
▁Mghwira	-10179
▁Tuli	-10180
▁(262)	-10181
▁pasipo	-10182
▁wapendwa	-10183
▁tani	-10184
ongezi	-10185
▁Nat	-10186
▁easy	-10187
▁Nabii	-10188
apk	-10189
pre	-10190
zuni	-10191
▁hekima	-10192
▁LTD	-10193
▁Eric	-10194
EZI	-10195
▁Makuu	-10196
▁Kutengeneza	-10197
Man	-10198
▁kudai	-10199
▁Nenda	-10200
AO	-10201
▁maskini	-10202
▁questions	-10203
known	-10204
cholar	-10205
▁mus	-10206
▁HERE	-10207
▁Party	-10208
▁kupakua	-10209
▁AB	-10210
wajibika	-10211
▁Uchoraji	-10212
▁$155	-10213
▁ununuzi	-10214
’,	-10215
▁marekebisho	-10216
▁Hand	-10217
▁platform	-10218
Weka	-10219
ifai	-10220
▁Onyesho	-10221
▁karatasi	-10222
▁Vigezo	-10223
▁ratiba	-10224
▁Fomu	-10225
▁Neema	-10226
tali	-10227
Ro	-10228
lafu	-10229
▁Mikoani	-10230
▁yatangaza	-10231
▁Vodacom	-10232
,,	-10233
rat	-10234
▁wakim	-10235
▁mastaa	-10236
▁Designer	-10237
KANI	-10238
▁Wale	-10239
BET	-10240
life	-10241
ِي	-10242
ctoria	-10243
▁dogo	-10244
▁majadiliano	-10245
▁kuwania	-10246
▁Kongo	-10247
▁Sum	-10248
▁Airtel	-10249
fukuza	-10250
▁ambae	-10251
▁works	-10252
▁White	-10253
▁gener	-10254
▁Bilioni	-10255
▁Wordpress	-10256
▁kukua	-10257
▁pindi	-10258
74	-10259
▁Amazon	-10260
▁UA	-10261
Af	-10262
liwe	-10263
▁Commons	-10264
domo	-10265
▁majeshi	-10266
▁Kushiriki	-10267
▁JAM	-10268
▁doesn	-10269
gration	-10270
tary	-10271
sip	-10272
ENDELEO	-10273
LAY	-10274
▁Human	-10275
ishiriki	-10276
.00	-10277
▁misha	-10278
▁Daniel	-10279
▁Walimu	-10280
katoliki	-10281
▁kufurahia	-10282
PATI	-10283
▁Chem	-10284
▁Kiyoyozi	-10285
▁ty	-10286
▁Why	-10287
▁Usahihi	-10288
▁Nederlands	-10289
▁takriban	-10290
▁Distributed	-10291
▁Cra	-10292
▁Kinondoni	-10293
GN	-10294
bb	-10295
tangazwa	-10296
chukue	-10297
nv	-10298
▁Darasa	-10299
▁ALL	-10300
▁card	-10301
fm	-10302
amuru	-10303
ambatana	-10304
▁59	-10305
▁Jes	-10306
▁Her	-10307
rejea	-10308
▁alii	-10309
▁Tangu	-10310
ongelea	-10311
▁msichana	-10312
▁Org	-10313
▁Njombe	-10314
▁Director	-10315
▁kaskazini	-10316
uba	-10317
▁kinga	-10318
▁Manager	-10319
▁Kukaribisha	-10320
▁Maagano	-10321
oli	-10322
pitisha	-10323
▁MAARIFA	-10324
▁Template	-10325
▁phone	-10326
▁sina	-10327
▁table	-10328
▁KUFANYA	-10329
▁CRDB	-10330
▁kupigwa	-10331
▁Bri	-10332
index	-10333
▁Escrow	-10334
print	-10335
andaoni	-10336
',	-10337
▁Miongozo	-10338
▁MV	-10339
rage	-10340
emikali	-10341
vuna	-10342
▁Viungo	-10343
lot	-10344
cense	-10345
▁Ushu	-10346
▁baiskeli	-10347
▁uchungu	-10348
▁ufahamu	-10349
Read	-10350
ZIMA	-10351
▁Vyama	-10352
gna	-10353
dharani	-10354
▁win	-10355
▁Swali	-10356
:19	-10357
ruit	-10358
sets	-10359
▁mawaziri	-10360
▁Nawa	-10361
▁JK	-10362
▁GE	-10363
denti	-10364
tacts	-10365
▁Nape	-10366
▁Nyuma	-10367
▁Pu	-10368
▁Swe	-10369
▁LATEST	-10370
urna	-10371
▁TCRA	-10372
▁HALI	-10373
ZIA	-10374
TOBA	-10375
▁Ufugaji	-10376
▁(45)	-10377
▁related	-10378
▁SWALI	-10379
32	-10380
paign	-10381
mbilia	-10382
wasiliane	-10383
▁kuibu	-10384
▁hususan	-10385
/5	-10386
▁Vituo	-10387
▁Python	-10388
▁46	-10389
onic	-10390
habiti	-10391
▁expertise	-10392
vely	-10393
himili	-10394
giliaji	-10395
kid	-10396
▁They	-10397
▁Wasanii	-10398
▁Whatsapp	-10399
ders	-10400
▁Gold	-10401
mmy	-10402
dodo	-10403
▁Thread	-10404
viron	-10405
xico	-10406
▁Sugar	-10407
Su	-10408
reek	-10409
▁wange	-10410
▁washikiliwa	-10411
▁MAKAMU	-10412
▁Watumia	-10413
▁mikononi	-10414
▁Kijerumani	-10415
▁Expert	-10416
uani	-10417
’.	-10418
sider	-10419
▁Usha	-10420
▁Mti	-10421
▁hard	-10422
▁Gospo	-10423
▁Will	-10424
▁feel	-10425
▁Rukwa	-10426
▁sk	-10427
▁KUMBU	-10428
250-750	-10429
▁Information	-10430
▁Imesa	-10431
FANIKIO	-10432
not	-10433
html	-10434
▁Portuguese	-10435
▁SCHO	-10436
▁vir	-10437
▁Week	-10438
ribution	-10439
CRI	-10440
ščina	-10441
▁keep	-10442
panies	-10443
▁group	-10444
▁anaandika	-10445
arning	-10446
▁Install	-10447
λλ	-10448
▁Akiwa	-10449
▁IJUMAA	-10450
▁Joomla	-10451
belgiji	-10452
▁Ajili	-10453
▁photos	-10454
uziki	-10455
▁redio	-10456
faulu	-10457
========	-10458
UP	-10459
pm	-10460
OSE	-10461
▁Que	-10462
Official	-10463
▁Mussa	-10464
▁wazima	-10465
▁wastani	-10466
▁ICC	-10467
▁Mazoea	-10468
pare	-10469
rania	-10470
▁Magento	-10471
▁1000	-10472
▁(50)	-10473
▁FAIDA	-10474
▁sayansi	-10475
▁Showing	-10476
▁Not	-10477
▁(60)	-10478
▁AFRI	-10479
▁Building	-10480
▁Shop	-10481
▁hist	-10482
▁Messages	-10483
▁alifanya	-10484
achi	-10485
▁return	-10486
▁ZIA	-10487
unisia	-10488
▁Abdallah	-10489
rome	-10490
bingu	-10491
▁cod	-10492
.’	-10493
AA	-10494
▁maonyesho	-10495
YOI	-10496
▁MAFANIKIO	-10497
português	-10498
▁Vijijini	-10499
▁mwe	-10500
▁nguzo	-10501
kinishwa	-10502
ón	-10503
▁dist	-10504
▁users	-10505
cloud	-10506
▁kiufundi	-10507
▁CI	-10508
▁Smart	-10509
▁publish	-10510
▁(79)	-10511
▁Phone	-10512
▁Newsletter	-10513
▁Kuwasaidia	-10514
▁Ila	-10515
tab	-10516
▁func	-10517
▁huna	-10518
her	-10519
▁Count	-10520
▁author	-10521
▁Taaluma	-10522
▁MSU	-10523
erse	-10524
▁Ule	-10525
Muziki	-10526
endera	-10527
▁MAENDELEO	-10528
OM	-10529
HIMU	-10530
tivi	-10531
▁BONGO	-10532
HEMU	-10533
roka	-10534
▁Kulia	-10535
▁across	-10536
▁kuunga	-10537
sababishwa	-10538
▁Tayari	-10539
555	-10540
▁Dauda	-10541
apy	-10542
shions	-10543
▁Vietnam	-10544
▁Ci	-10545
▁indi	-10546
▁anafanya	-10547
▁kutumiwa	-10548
▁belie	-10549
commerce	-10550
▁chaguzi	-10551
▁yanatumika	-10552
▁USHI	-10553
TARI	-10554
▁Fun	-10555
inux	-10556
▁abiria	-10557
▁elect	-10558
▁maujanja	-10559
TP	-10560
▁Tv	-10561
▁TZA	-10562
▁samp	-10563
tumble	-10564
▁sakata	-10565
▁Wakristo	-10566
susi	-10567
Čeština	-10568
pies	-10569
▁kujaza	-10570
▁Mwitikio	-10571
dah	-10572
▁SHO	-10573
strap	-10574
▁mwao	-10575
▁GMT	-10576
▁exis	-10577
▁Study	-10578
SHE	-10579
SHWA	-10580
▁WHO	-10581
MINA	-10582
▁mbao	-10583
WEZA	-10584
kyembe	-10585
▁Kija	-10586
▁Tweets	-10587
▁kijinsia	-10588
sheni	-10589
witch	-10590
▁wazo	-10591
▁Barcelona	-10592
linganishwa	-10593
kipiki	-10594
▁Daesh	-10595
▁built	-10596
zalishwa	-10597
ANDISHI	-10598
▁Basic	-10599
▁Cookies	-10600
PF	-10601
Heka	-10602
▁Build	-10603
▁ZE	-10604
▁mj	-10605
▁Machaguo	-10606
dern	-10607
▁Sio	-10608
tice	-10609
▁Malkia	-10610
▁inafanya	-10611
▁MTANZANIA	-10612
▁BAN	-10613
▁seo	-10614
▁il	-10615
▁Wajumbe	-10616
▁tunaomba	-10617
ight	-10618
inho	-10619
lici	-10620
▁Gani	-10621
▁Useful	-10622
struction	-10623
▁Sound	-10624
▁kurekebisha	-10625
▁WAME	-10626
▁Christ	-10627
umzika	-10628
▁MAT	-10629
▁KUKU	-10630
▁Spanish	-10631
umwa	-10632
Un	-10633
▁Makao	-10634
▁wafugaji	-10635
▁Nda	-10636
▁haiwezi	-10637
▁maishani	-10638
▁KUN	-10639
▁wapiga	-10640
▁Photography	-10641
RIBU	-10642
▁asasi	-10643
▁laini	-10644
▁grow	-10645
nologi	-10646
▁travel	-10647
▁56	-10648
▁inapakiaWeka	-10649
▁(70)	-10650
hambi	-10651
▁maandiko	-10652
vanced	-10653
▁punde	-10654
▁TB	-10655
news	-10656
Maisha	-10657
▁uwanjani	-10658
KILIZA	-10659
:21	-10660
▁FO	-10661
LOZI	-10662
rayer	-10663
▁hawata	-10664
ned	-10665
▁Stumble	-10666
▁average	-10667
▁Uhusiano	-10668
xel	-10669
uguzi	-10670
~~	-10671
▁contra	-10672
▁Daktari	-10673
▁wanasiasa	-10674
▁band	-10675
▁Uteuzi	-10676
ombole	-10677
▁customers	-10678
▁Rich	-10679
▁mungu	-10680
▁Tel	-10681
▁prom	-10682
lori	-10683
▁Elim	-10684
▁Foreign	-10685
▁Tamasha	-10686
▁kilele	-10687
jitahidi	-10688
▁Ee	-10689
zangu	-10690
Je	-10691
▁kujali	-10692
cep	-10693
▁Russian	-10694
cape	-10695
▁akutana	-10696
▁KE	-10697
▁(73)	-10698
▁usafirishaji	-10699
▁MOTO	-10700
XX	-10701
▁Watumiaji	-10702
ught	-10703
▁ilio	-10704
ridge	-10705
▁Johnson	-10706
▁Kuzuia	-10707
▁HISTORIA	-10708
ception	-10709
▁Haraka	-10710
vutio	-10711
▁vinavyopatikana	-10712
▁Hoteli	-10713
pped	-10714
unes	-10715
pigo	-10716
▁mys	-10717
▁Africans	-10718
▁Ushirika	-10719
zizi	-10720
Teknolojia	-10721
].	-10722
BOOK	-10723
galia	-10724
▁utakapokuwa	-10725
ENDO	-10726
▁kutokuwa	-10727
▁Gabri	-10728
FSI	-10729
▁52	-10730
atiti	-10731
▁Library	-10732
▁ufunguzi	-10733
Pesa	-10734
▁lim	-10735
▁JAMHURI	-10736
▁tamasha	-10737
▁kufanikisha	-10738
▁Kiti	-10739
▁ED	-10740
gulu	-10741
▁Kinara	-10742
▁ano	-10743
▁imple	-10744
▁Arabic	-10745
GHA	-10746
▁Zime	-10747
bes	-10748
▁GOSPO	-10749
sin	-10750
▁Uzinduzi	-10751
WANDA	-10752
03	-10753
ades	-10754
char	-10755
▁prin	-10756
▁advertis	-10757
▁OKTOBA	-10758
Uni	-10759
▁ikawa	-10760
▁tunayo	-10761
▁ci	-10762
▁Aya	-10763
house	-10764
▁Right	-10765
▁machozi	-10766
▁Teknokona	-10767
▁mwenzake	-10768
▁Demokrasia	-10769
▁ide	-10770
▁Harusi	-10771
▁wel	-10772
youtube	-10773
▁(240)	-10774
▁ninge	-10775
▁Samatta	-10776
Me	-10777
▁Access	-10778
šu	-10779
▁KK	-10780
Mpya	-10781
▁uchambuzi	-10782
▁Imesakinishwa	-10783
:49	-10784
▁NDIO	-10785
▁Arabia	-10786
▁Tarime	-10787
▁Advertising	-10788
▁Gene	-10789
▁wanajeshi	-10790
bur	-10791
sifu	-10792
▁niwa	-10793
▁Under	-10794
stiki	-10795
▁dhati	-10796
▁WAKATI	-10797
ends	-10798
fikapo	-10799
▁Heb	-10800
udia	-10801
▁Saudi	-10802
▁mifano	-10803
ootstrap	-10804
kwama	-10805
viešu	-10806
askofu	-10807
King	-10808
▁inf	-10809
Net	-10810
▁Likes	-10811
▁pembejeo	-10812
▁Fal	-10813
▁Ubelgiji	-10814
Inter	-10815
▁kanda	-10816
▁$4	-10817
▁Mix	-10818
▁Hamad	-10819
▁SABABU	-10820
fahamika	-10821
▁Usanifu	-10822
▁Palestina	-10823
▁utajiri	-10824
hubu	-10825
▁sare	-10826
Mwenyeji	-10827
▁Mikutano	-10828
Jo	-10829
haj	-10830
Elimu	-10831
▁BILA	-10832
▁Linux	-10833
▁zima	-10834
▁kusimama	-10835
gundu	-10836
▁mazishi	-10837
wanza	-10838
▁Kiu	-10839
▁ODM	-10840
▁Mnyika	-10841
▁include	-10842
▁SnapChat	-10843
▁Ata	-10844
▁FACE	-10845
hukumu	-10846
▁Swi	-10847
▁maandamano	-10848
▁Samani	-10849
guna	-10850
▁UV	-10851
▁zit	-10852
▁Jacob	-10853
▁Reac	-10854
▁girl	-10855
▁USHA	-10856
▁usambazaji	-10857
▁Raia	-10858
▁seti	-10859
▁kuingilia	-10860
▁Uchunguzi	-10861
▁Afghanistani	-10862
ُو	-10863
gana	-10864
utho	-10865
▁afanya	-10866
▁TEHAMA	-10867
jikuta	-10868
mani	-10869
taur	-10870
▁why	-10871
▁MAANA	-10872
ofisa	-10873
▁visa	-10874
▁Tunisia	-10875
ils	-10876
uno	-10877
himbili	-10878
New	-10879
fairs	-10880
lomita	-10881
▁water	-10882
And	-10883
▁Damu	-10884
fichuka	-10885
▁tanbihi	-10886
▁bud	-10887
▁NJE	-10888
▁Uja	-10889
ishio	-10890
▁Eras	-10891
anidi	-10892
▁Wasaidie	-10893
▁Nay	-10894
wagiliaji	-10895
zakh	-10896
▁kusambaza	-10897
▁likes	-10898
▁food	-10899
▁Adobe	-10900
▁digital	-10901
ارسی	-10902
▁Nunua	-10903
▁Database	-10904
▁kukabidhi	-10905
beit	-10906
▁Idhaa	-10907
▁designed	-10908
▁Ujasiriamali	-10909
▁Kilicho	-10910
hibit	-10911
menti	-10912
MBER	-10913
▁AMANI	-10914
▁Mwanawe	-10915
▁OUR	-10916
▁visit	-10917
▁kulipwa	-10918
▁أ	-10919
cul	-10920
▁mko	-10921
▁Az	-10922
▁MAKINI	-10923
▁charac	-10924
▁kibao	-10925
apycka	-10926
▁yabanwa	-10927
▁Uzbe	-10928
▁tunavyo	-10929
otho	-10930
▁Fil	-10931
▁Greet	-10932
▁vilevile	-10933
▁miili	-10934
▁misitu	-10935
fle	-10936
▁going	-10937
▁Mur	-10938
▁kuua	-10939
▁Current	-10940
▁commenting	-10941
▁kusudi	-10942
KARI	-10943
/2012	-10944
anian	-10945
▁SEHEMU	-10946
▁Uchukuzi	-10947
oud	-10948
▁document	-10949
▁Tanganyika	-10950
ทย	-10951
dition	-10952
▁VIDEOS	-10953
▁Ramadhani	-10954
lei	-10955
MALI	-10956
teko	-10957
KINI	-10958
▁mvu	-10959
▁kombe	-10960
▁wanapaswa	-10961
▁Sol	-10962
▁Fursa	-10963
▁hapana	-10964
▁Application	-10965
gwe	-10966
▁Udukuzi	-10967
▁Zingine	-10968
▁MABA	-10969
dough	-10970
▁micro	-10971
shangaa	-10972
▁Editor	-10973
▁NINI	-10974
ishiwa	-10975
▁Steph	-10976
▁KUA	-10977
▁Edit	-10978
▁Mwakyembe	-10979
▁Dir	-10980
▁FIFA	-10981
▁Amina	-10982
▁baadae	-10983
Yo	-10984
▁Prince	-10985
THI	-10986
▁MTANDAO	-10987
▁Football	-10988
hia	-10989
hind	-10990
Follow	-10991
▁Mongo	-10992
▁Ungana	-10993
JIRI	-10994
zote	-10995
▁KIN	-10996
Angalia	-10997
verpool	-10998
▁한국어	-10999
▁KAMATI	-11000
▁posted	-11001
▁msamaha	-11002
▁(63)	-11003
ANYA	-11004
▁mbwa	-11005
MOSI	-11006
▁nde	-11007
▁inaonekana	-11008
ไทย	-11009
Lakini	-11010
▁tuweze	-11011
▁Alijiunga	-11012
,000/=	-11013
kuletea	-11014
▁tunapo	-11015
▁Unknown	-11016
QU	-11017
pify	-11018
wakilisha	-11019
oe	-11020
hiyo	-11021
▁Vol	-11022
pokelewa	-11023
▁stori	-11024
▁kubaki	-11025
▁Bikira	-11026
▁Wachezaji	-11027
▁lyrics	-11028
gamba	-11029
MILI	-11030
Terminal	-11031
gonga	-11032
GC	-11033
▁ui	-11034
▁Jack	-11035
▁Model	-11036
▁editor	-11037
,...	-11038
▁cou	-11039
▁Kiungo	-11040
▁Magereza	-11041
TINDO	-11042
▁auto	-11043
ksi	-11044
comment	-11045
chimba	-11046
tokeza	-11047
▁GI	-11048
saba	-11049
nd	-11050
pitalini	-11051
app	-11052
▁Kula	-11053
▁times	-11054
:45	-11055
yai	-11056
achia	-11057
pendi	-11058
chom	-11059
ZUNGU	-11060
rasani	-11061
lations	-11062
▁04,	-11063
▁JIUNGE	-11064
▁KUSI	-11065
▁deci	-11066
▁nokia	-11067
▁ubatizo	-11068
andy	-11069
▁kusafisha	-11070
UNDE	-11071
pelelezi	-11072
lemu	-11073
00)	-11074
▁Christian	-11075
22)	-11076
▁DK	-11077
▁BOOK	-11078
▁Mkono	-11079
▁IEBC	-11080
songa	-11081
▁8020	-11082
tivity	-11083
▁iweze	-11084
▁Rushwa	-11085
▁Makamba	-11086
▁bonyeza	-11087
We	-11088
▁q	-11089
wood	-11090
DISHO	-11091
▁GGML	-11092
respond	-11093
▁ubunge	-11094
▁uelewa	-11095
▁57	-11096
FAA	-11097
cra	-11098
▁KAMP	-11099
▁Victor	-11100
kasi	-11101
▁Sil	-11102
▁kuosha	-11103
dra	-11104
▁Corona	-11105
▁artist	-11106
Sys	-11107
ibua	-11108
▁lot	-11109
▁Kita	-11110
▁rating	-11111
▁yanapatikana	-11112
istr	-11113
▁uji	-11114
▁ughairi	-11115
orry	-11116
:44	-11117
▁tur	-11118
bie	-11119
▁Ajali	-11120
Shiriki	-11121
▁58	-11122
▁Malinzi	-11123
▁fanya	-11124
▁various	-11125
▁2022-09	-11126
▁madaraka	-11127
▁kubaini	-11128
▁Gabriel	-11129
▁rufaa	-11130
kosea	-11131
WAHILI	-11132
:32	-11133
▁Foo	-11134
leaning	-11135
▁Cy	-11136
▁Utoaji	-11137
▁hesabu	-11138
erehekea	-11139
▁zimetafsiriwa	-11140
▁developed	-11141
▁computer	-11142
▁EPL	-11143
semekana	-11144
kose	-11145
cket	-11146
▁$50	-11147
▁TAREHE	-11148
▁wenzao	-11149
ADHI	-11150
FANYI	-11151
▁idea	-11152
▁kuungana	-11153
▁Lulu	-11154
▁Malaysia	-11155
Sysinfo	-11156
AboutSysinfo	-11157
Spoti	-11158
▁POPU	-11159
peperu	-11160
▁Gossip	-11161
▁hedhi	-11162
▁(18	-11163
▁Uholanzi	-11164
PANGA	-11165
▁tafsiri	-11166
▁previous	-11167
▁Upo	-11168
▁Richa	-11169
▁󹀁	-11170
▁SIMU	-11171
▁tuwe	-11172
▁Saint	-11173
▁Erasto	-11174
yna	-11175
▁Ufundi	-11176
▁things	-11177
▁Türkçe	-11178
thman	-11179
▁watakiwa	-11180
giriki	-11181
▁UTALII	-11182
▁kuchukuliwa	-11183
▁gh	-11184
:40	-11185
▁99	-11186
MEDIA	-11187
▁beach	-11188
▁Browse	-11189
choma	-11190
▁ECHO	-11191
▁Victoria	-11192
▁Dalili	-11193
▁USIKU	-11194
papers	-11195
-03	-11196
▁kuthibitisha	-11197
vuta	-11198
atolewa	-11199
▁JUMAMOSI	-11200
▁2015.	-11201
▁kukusaidia	-11202
▁Gich	-11203
▁issues	-11204
pache	-11205
keni	-11206
▁03,	-11207
▁kushika	-11208
▁Miundombinu	-11209
vių	-11210
▁Endeshaji	-11211
▁big	-11212
▁Jengo	-11213
sanyaji	-11214
▁Imechapishwa	-11215
Bu	-11216
▁Pad	-11217
letwa	-11218
▁kiki	-11219
▁2022-08	-11220
▁Profile	-11221
KUA	-11222
WELI	-11223
▁muajiri	-11224
▁4:	-11225
ssy	-11226
▁Ques	-11227
▁mboga	-11228
▁space	-11229
▁Papers	-11230
▁KUMBUKUMBU	-11231
▁ZIARA	-11232
ruhusiwi	-11233
chekeshaji	-11234
▁mafa	-11235
▁usitume	-11236
▁PL	-11237
kumbusho	-11238
▁Nickson	-11239
▁tahadhari	-11240
gers	-11241
▁Hatari	-11242
▁wafanya	-11243
▁nu	-11244
▁Vyuo	-11245
▁Uhalifu	-11246
ansk	-11247
▁Ngoma	-11248
▁OS	-11249
atalà	-11250
▁aweze	-11251
▁Standard	-11252
▁zim	-11253
▁kozi	-11254
▁members	-11255
▁nis	-11256
▁magaidi	-11257
▁Kupangisha	-11258
▁put	-11259
▁UNITED	-11260
▁UTU	-11261
▁tele	-11262
▁kuwawezesha	-11263
goma	-11264
GANO	-11265
▁MAONI	-11266
▁Mushi	-11267
38	-11268
▁Tetesi	-11269
▁Adam	-11270
▁cheti	-11271
▁Machine	-11272
▁Wataalam	-11273
▁ukusanyaji	-11274
fufuo	-11275
▁duka	-11276
ooper	-11277
len	-11278
▁value	-11279
orn	-11280
wekewa	-11281
▁industry	-11282
▁Gam	-11283
maji	-11284
▁Va	-11285
ingizwa	-11286
chat	-11287
▁Tangazo	-11288
▁Tanzanian	-11289
▁Product	-11290
▁(91)	-11291
▁pres	-11292
vigate	-11293
▁mimea	-11294
▁Exper	-11295
▁UDA	-11296
▁Waka	-11297
▁kuhamasisha	-11298
▁Pl	-11299
▁Nyaraka	-11300
ISHWA	-11301
▁HAKI	-11302
▁Max	-11303
▁wanapata	-11304
▁fit	-11305
etuvių	-11306
▁WANAO	-11307
▁Bill	-11308
onywa	-11309
▁Sales	-11310
gas	-11311
JS	-11312
▁Mont	-11313
hesabu	-11314
▁DR	-11315
▁FACEBOOK	-11316
▁kuifanya	-11317
▁MAFUNDISHO	-11318
▁MBUNGE	-11319
▁colle	-11320
rajio	-11321
▁majani	-11322
dj	-11323
▁Vyakula	-11324
▁YOUTUBE	-11325
Wan	-11326
▁49	-11327
▁answer	-11328
▁handle	-11329
▁yatakayo	-11330
▁Hesabu	-11331
▁(75)	-11332
▁DAWA	-11333
▁security	-11334
/2013	-11335
▁KITABU	-11336
onder	-11337
▁vema	-11338
gether	-11339
▁Muhimbili	-11340
▁MASO	-11341
▁Mitego	-11342
▁Following	-11343
▁kutofautiana	-11344
2016	-11345
▁ajenda	-11346
▁madogo	-11347
▁0732482690.	-11348
ength	-11349
▁customer	-11350
▁Developed	-11351
ONG	-11352
72	-11353
▁Afro	-11354
▁saratani	-11355
ie	-11356
▁tv	-11357
▁Usiku	-11358
▁MOJA	-11359
▁Illustrator	-11360
ladesh	-11361
▁Koffi	-11362
WT	-11363
iki	-11364
▁JKT	-11365
▁Spa	-11366
vit	-11367
▁Songea	-11368
lindi	-11369
pasavyo	-11370
▁kin	-11371
ingizi	-11372
▁Elect	-11373
▁Rekodi	-11374
▁Ibn	-11375
▁Mexico	-11376
/2018	-11377
▁mitambo	-11378
▁shambulio	-11379
▁Filipino	-11380
▁another	-11381
umvi	-11382
▁SHERIA	-11383
▁Tag	-11384
▁improve	-11385
hehebu	-11386
▁Mavazi	-11387
▁husaidia	-11388
idika	-11389
▁Bagamoyo	-11390
ena	-11391
▁PIA	-11392
anon	-11393
weni	-11394
chele	-11395
▁size	-11396
▁Promo	-11397
▁64	-11398
▁Mike	-11399
KEZAJI	-11400
▁Att	-11401
▁hadharani	-11402
ganga	-11403
▁Martin	-11404
:36	-11405
▁Pil	-11406
▁three	-11407
ONY	-11408
▁sinema	-11409
JUA	-11410
skini	-11411
▁Maarifa	-11412
▁aliongeza	-11413
:38	-11414
lemani	-11415
facebook	-11416
▁dirisha	-11417
▁michango	-11418
▁Feat	-11419
▁wakiwemo	-11420
▁Ai	-11421
▁Bal	-11422
▁Qua	-11423
qi	-11424
▁ت	-11425
▁Kisheria	-11426
YY	-11427
Kama	-11428
▁Macha	-11429
▁DU	-11430
WANJA	-11431
2015	-11432
▁possible	-11433
hojiwa	-11434
▁Kikristo	-11435
anisho	-11436
kumbuke	-11437
▁kushuka	-11438
▁raha	-11439
▁matakwa	-11440
▁ubingwa	-11441
rate	-11442
▁Ever	-11443
▁Nita	-11444
▁riadha	-11445
-02	-11446
▁Tor	-11447
▁sum	-11448
▁editing	-11449
▁Publishers	-11450
▁Utangulizi	-11451
tikadi	-11452
DD	-11453
▁Rai	-11454
lipaulo	-11455
▁Kutuma	-11456
Qu	-11457
imba	-11458
▁Pris	-11459
lab	-11460
▁thi	-11461
▁Janja	-11462
:20	-11463
hata	-11464
kur	-11465
▁teach	-11466
kos	-11467
kura	-11468
▁02,	-11469
erikali	-11470
▁mua	-11471
▁Yote	-11472
▁KISIMA	-11473
▁called	-11474
bongo	-11475
▁NDOA	-11476
▁Richard	-11477
CHUMI	-11478
vumili	-11479
▁Anasema	-11480
▁2005	-11481
▁Gicheru	-11482
▁ofisini	-11483
▁bukuku	-11484
▁Dizzim	-11485
▁POS	-11486
▁Minister	-11487
ajili	-11488
▁tokea	-11489
▁designing	-11490
▁shinikizo	-11491
▁busara	-11492
ITA	-11493
bian	-11494
vice	-11495
▁TATU	-11496
▁skip	-11497
▁Widget	-11498
▁utafutaji	-11499
▁nae	-11500
▁machache	-11501
▁ziwa	-11502
▁Mwamba	-11503
▁Guar	-11504
▁stru	-11505
▁accoun	-11506
▁audio	-11507
▁Tukufu	-11508
haha	-11509
▁Saraka	-11510
▁Reading	-11511
upon	-11512
ilikiwa	-11513
pigania	-11514
▁Mkenya	-11515
▁kutibu	-11516
atikani	-11517
▁viti	-11518
▁Algeria	-11519
ords	-11520
▁Eth	-11521
▁POPULAR	-11522
RESS	-11523
▁large	-11524
▁yaanza	-11525
▁Kucheza	-11526
▁function	-11527
▁mitume	-11528
▁funguo	-11529
▁itaendelea	-11530
iler	-11531
▁tag	-11532
▁kibali	-11533
▁Yerusa	-11534
dium	-11535
▁Sponge	-11536
▁less	-11537
▁haita	-11538
▁WALIOCHAGULIWA	-11539
▁umethibitishwa	-11540
poni	-11541
▁Perma	-11542
▁OR	-11543
▁Sky	-11544
hini	-11545
▁deni	-11546
▁MWENYEKITI	-11547
▁Tatizo	-11548
UZI	-11549
");	-11550
▁Mwl	-11551
▁kuvaa	-11552
cient	-11553
▁Happy	-11554
▁kelele	-11555
▁:)	-11556
▁MITINDO	-11557
juze	-11558
porate	-11559
▁happy	-11560
▁ukanda	-11561
▁Mahakamani	-11562
-01	-11563
Sho	-11564
▁Region	-11565
kusu	-11566
▁nji	-11567
▁acha	-11568
adline	-11569
takavyo	-11570
▁kisayansi	-11571
jazo	-11572
elimisha	-11573
gemea	-11574
yz	-11575
kumb	-11576
▁WAKA	-11577
▁hawawezi	-11578
BIDHI	-11579
▁Zake	-11580
▁Translate	-11581
jivunia	-11582
▁mumewe	-11583
▁Miongoni	-11584
▁Reactions	-11585
▁66	-11586
▁sensa	-11587
▁bedroom	-11588
▁VIONGOZI	-11589
ordan	-11590
▁watoa	-11591
changan	-11592
fungia	-11593
▁Luka	-11594
▁sli	-11595
▁Emba	-11596
-1500	-11597
home	-11598
▁consider	-11599
▁Liverpool	-11600
▁disa	-11601
▁city	-11602
mat	-11603
▁MH	-11604
▁agree	-11605
▁DP	-11606
-15	-11607
▁demokrasia	-11608
coin	-11609
▁Moni	-11610
▁shambani	-11611
▁Yu	-11612
▁juma	-11613
▁Halisi	-11614
jenge	-11615
▁Kipa	-11616
39)	-11617
▁present	-11618
▁Room	-11619
▁hutumiwa	-11620
:43	-11621
▁syntax	-11622
▁Waheshimiwa	-11623
ambe	-11624
pigi	-11625
▁boda	-11626
▁Stumbleupon	-11627
▁UFA	-11628
ror	-11629
▁AGO	-11630
timiza	-11631
zingatiwa	-11632
safa	-11633
▁Ndogo	-11634
▁Bandari	-11635
▁Fadhili	-11636
▁kumsaidia	-11637
▁Shari	-11638
OI	-11639
▁sol	-11640
dodoe	-11641
▁Cour	-11642
▁Karibuni	-11643
▁companies	-11644
▁Rashi	-11645
▁Travel	-11646
▁ugaidi	-11647
eman	-11648
▁nikiwa	-11649
▁Kongamano	-11650
7-	-11651
MANNE	-11652
▁links	-11653
endakazi	-11654
pori	-11655
▁angalia	-11656
rutu	-11657
▁NASA	-11658
▁Sambaza	-11659
▁existing	-11660
▁inapakiaAngalia	-11661
sk	-11662
▁unaendelea	-11663
▁Facades	-11664
gio	-11665
okoni	-11666
UL	-11667
▁Kisutu	-11668
▁unique	-11669
:31	-11670
okovu	-11671
▁zafichuka	-11672
-13	-11673
kte	-11674
▁Kifo	-11675
atumia	-11676
:25	-11677
▁Kutafuta	-11678
▁kukamatwa	-11679
kutwa	-11680
▁pembeni	-11681
embezi	-11682
▁America	-11683
Line	-11684
▁jiwe	-11685
▁enjoy	-11686
untain	-11687
ongoro	-11688
▁Jabir	-11689
ola	-11690
▁Food	-11691
▁Affairs	-11692
loyment	-11693
▁JUMANNE	-11694
▁located	-11695
▁sell	-11696
▁Clouds	-11697
▁Msu	-11698
▁kiporo	-11699
rodu	-11700
▁WALI	-11701
▁elezo	-11702
uu	-11703
harini	-11704
arks	-11705
▁Dan	-11706
▁mda	-11707
85)	-11708
gacy	-11709
▁anwani	-11710
PATIKANA	-11711
▁alipata	-11712
HURU	-11713
hamis	-11714
▁(216)	-11715
MY	-11716
ebrania	-11717
▁inahitaji	-11718
▁Date	-11719
▁kifi	-11720
kisoma	-11721
▁Kikao	-11722
▁further	-11723
▁HAL	-11724
▁hiari	-11725
▁uchafu	-11726
▁97	-11727
▁KISA	-11728
umiza	-11729
▁kutoku	-11730
far	-11731
Nime	-11732
▁Wai	-11733
▁Jerry	-11734
▁vidogo	-11735
katikati	-11736
▁Mlima	-11737
lists	-11738
longo	-11739
▁Buku	-11740
▁wapate	-11741
▁Nk	-11742
hitim	-11743
▁government	-11744
▁SPORTS	-11745
▁Bangladesh	-11746
▁inayofuata	-11747
▁Patter	-11748
▁Mchezaji	-11749
▁wanajamii	-11750
▁Result	-11751
HN	-11752
ergy	-11753
▁DW	-11754
▁Kutana	-11755
▁tuji	-11756
▁(506)	-11757
▁waumini	-11758
zesha	-11759
▁Ngono	-11760
▁insta	-11761
▁Maajabu	-11762
▁Results	-11763
sur	-11764
▁SHULE	-11765
▁kilomita	-11766
▁hatuna	-11767
▁(2,	-11768
atoka	-11769
▁Ndoto	-11770
▁Imp	-11771
▁Scholar	-11772
▁à	-11773
▁Know	-11774
ppines	-11775
▁umaskini	-11776
▁term	-11777
▁haiku	-11778
▁Mahiga	-11779
▁club	-11780
▁mwema	-11781
nologies	-11782
▁niku	-11783
▁Quest	-11784
▁Turkish	-11785
▁Muni	-11786
▁taaluma	-11787
CD	-11788
POKEA	-11789
▁Note	-11790
▁single	-11791
▁kutunza	-11792
▁ل	-11793
▁Boy	-11794
geuza	-11795
▁kiji	-11796
rekebisha	-11797
▁Nawe	-11798
▁Sora	-11799
▁SEMINA	-11800
THE	-11801
:22	-11802
▁Europe	-11803
▁Ubungo	-11804
GORO	-11805
▁Info	-11806
▁mshahara	-11807
▁thabiti	-11808
sit	-11809
▁Ful	-11810
▁MARE	-11811
▁BOOKS	-11812
▁wil	-11813
▁fast	-11814
hanati	-11815
zkid	-11816
arly	-11817
hatisha	-11818
▁office	-11819
atusi	-11820
날씨	-11821
ROM	-11822
▁ushu	-11823
inea	-11824
▁Plat	-11825
▁kutaja	-11826
▁(96	-11827
▁lipo	-11828
:28	-11829
▁vikosi	-11830
▁Contacts	-11831
raditional	-11832
saha	-11833
eneji	-11834
▁Some	-11835
grafia	-11836
▁Mission	-11837
wes	-11838
▁Visa	-11839
▁budget	-11840
▁afunguka	-11841
▁past	-11842
▁SG	-11843
▁kiafya	-11844
▁($250-750	-11845
750	-11846
▁Kuli	-11847
▁Ahmed	-11848
▁Lost	-11849
UND	-11850
sert	-11851
dhalilisha	-11852
shirikiana	-11853
▁kuanzishwa	-11854
▁Hot	-11855
▁Mengine	-11856
92	-11857
amkia	-11858
▁Udhibiti	-11859
▁children	-11860
ams	-11861
chukia	-11862
▁Maelekezo	-11863
****************	-11864
omesha	-11865
▁Permalink	-11866
▁GOSPOMEDIA	-11867
▁INTER	-11868
▁anajua	-11869
ston	-11870
fajiri	-11871
▁Mwanamuziki	-11872
▁4)	-11873
▁Licha	-11874
▁smart	-11875
hamisho	-11876
▁MUZIKI	-11877
▁Pan	-11878
▁Church	-11879
▁Greetings	-11880
kizi	-11881
▁ramani	-11882
▁yawekwa	-11883
▁buy	-11884
▁kutakuwa	-11885
KS	-11886
▁waku	-11887
▁unaona	-11888
▁kuisaidia	-11889
▁Issa	-11890
gorith	-11891
gharimu	-11892
boda	-11893
▁Beat	-11894
▁DINI	-11895
▁affili	-11896
kar	-11897
umziko	-11898
456	-11899
▁kihistoria	-11900
▁NBA	-11901
▁....	-11902
▁radio	-11903
tivities	-11904
▁dia	-11905
▁Staff	-11906
▁banda	-11907
▁Vipindi	-11908
limiana	-11909
▁beautiful	-11910
EE	-11911
▁Yerusalemu	-11912
▁Programming	-11913
rudia	-11914
▁mapigano	-11915
▁Diramakini	-11916
komo	-11917
▁minne	-11918
▁Riadha	-11919
omic	-11920
▁Hotel	-11921
ln	-11922
:26	-11923
▁Del	-11924
▁Jumbe	-11925
sp	-11926
geta	-11927
▁ushirika	-11928
tos	-11929
▁maabara	-11930
▁kuhudhuria	-11931
:24	-11932
tica	-11933
▁Kara	-11934
ipongeza	-11935
:02	-11936
▁allow	-11937
▁KANISA	-11938
▁biblia	-11939
rictly	-11940
▁ZINAZO	-11941
▁hutumia	-11942
▁Secre	-11943
▁iphone	-11944
▃▃▃▃▃▃▃▃▃▃▃▃▃▃▃▃	-11945
▁hope	-11946
▁certi	-11947
CES	-11948
kina	-11949
HATI	-11950
▁IME	-11951
▁kuingiza	-11952
▁Kambi	-11953
▁Rose	-11954
▁fani	-11955
▁Sunnah	-11956
▁sote	-11957
▁Academic	-11958
hod	-11959
kuli	-11960
▁ufu	-11961
▁Mashirika	-11962
Sept	-11963
futwa	-11964
AU	-11965
▁tunaelekea	-11966
05	-11967
bibu	-11968
dokezo	-11969
▁illustr	-11970
oman	-11971
▁Tal	-11972
hisisha	-11973
▁mlo	-11974
No	-11975
▁niliyo	-11976
gola	-11977
▁kipimo	-11978
▁kivinjari	-11979
ello	-11980
▁Uhasibu	-11981
▁Kuwait	-11982
▁MATAIFA	-11983
ርኛ	-11984
TENDA	-11985
title	-11986
▁kidini	-11987
▁Counter	-11988
▁KITAIFA	-11989
Name	-11990
▁Haip	-11991
▁Line	-11992
▁imem	-11993
fali	-11994
photo	-11995
bul	-11996
▁Jioni	-11997
!!!!!!!!	-11998
▁Mwigulu	-11999
▁BUNGE	-12000
▁Maswa	-12001
▁Italian	-12002
raba	-12003
kabidhiwa	-12004
▁community	-12005
ements	-12006
▁Jordan	-12007
▁mku	-12008
▁Union	-12009
▁walim	-12010
:27	-12011
▁darasani	-12012
MC	-12013
vic	-12014
▁Gen	-12015
▁Wikimedia	-12016
sar	-12017
▁Mwanga	-12018
Cho	-12019
▁ANGA	-12020
▁Members	-12021
▁BY	-12022
▁Money	-12023
▁alizo	-12024
▁chemsha	-12025
.3	-12026
▁ipi	-12027
▁tamko	-12028
▁AGOSTI	-12029
unganishi	-12030
▁kushuhudia	-12031
▁Mbi	-12032
▁usahihi	-12033
kara	-12034
ances	-12035
▁MALI	-12036
ribio	-12037
▁kujifungua	-12038
▁Br	-12039
▁Mark	-12040
Maujanja	-12041
irthday	-12042
▁Mathayo	-12043
▁ufumbuzi	-12044
▁void	-12045
▁ipasavyo	-12046
enue	-12047
▁cover	-12048
▁Nijuze	-12049
enejimenti	-12050
▁Mut	-12051
ciety	-12052
▁YAWA	-12053
▁Ushindi	-12054
▁Sweden	-12055
:07	-12056
▁Azi	-12057
teuliwa	-12058
▁Masalu	-12059
▁watano	-12060
▁Haipatikani	-12061
UNDI	-12062
husiwi	-12063
zuru	-12064
▁living	-12065
▁Uvutaji	-12066
uta	-12067
▁Frank	-12068
▁URAIS	-12069
▁default	-12070
kabiliana	-12071
▁KATIBU	-12072
▁dhahiri	-12073
Tume	-12074
olewa	-12075
/06/2017	-12076
kedin	-12077
▁reach	-12078
▁Mtihani	-12079
▁wavuruga	-12080
▁upepo	-12081
▁question	-12082
Ita	-12083
▁mtaalamu	-12084
▁NECTA	-12085
▁63	-12086
▁bima	-12087
1]	-12088
kate	-12089
▁mabingwa	-12090
▁categories	-12091
▁Kuja	-12092
▁land	-12093
▁kuharibu	-12094
uki	-12095
▁Rud	-12096
▁States	-12097
TUA	-12098
dhaifu	-12099
▁06,	-12100
▁Rayvanny	-12101
▁Institu	-12102
▁maradhi	-12103
▁ula	-12104
erson	-12105
▁hela	-12106
kome	-12107
▁MKE	-12108
▁native	-12109
▁amefunguka	-12110
▁ziko	-12111
ghai	-12112
▁$35	-12113
▁120	-12114
▁Shahidi	-12115
sible	-12116
▁Put	-12117
swers	-12118
▁ishi	-12119
▁kurejesha	-12120
▁kushangaza	-12121
▁Linkedin	-12122
ckup	-12123
lified	-12124
▁Resources	-12125
▁Celebrities	-12126
VD	-12127
▁Mam	-12128
▁Somo	-12129
▁yatoa	-12130
Ab	-12131
▁Wokovu	-12132
▁kukumbu	-12133
▁wanangu	-12134
▁Kidemokrasia	-12135
:03	-12136
CIAL	-12137
IKA	-12138
ikolojia	-12139
▁virtual	-12140
text	-12141
▁kwaajili	-12142
▁Anza	-12143
▁MSAADA	-12144
▁interface	-12145
▁functiona	-12146
phe	-12147
Delete	-12148
lev	-12149
Yanga	-12150
eraha	-12151
▁(58)	-12152
katibu	-12153
▁Action	-12154
▁MUS	-12155
▁Have	-12156
pics	-12157
ession	-12158
▁Great	-12159
▁kimapenzi	-12160
RUG	-12161
gni	-12162
pher	-12163
▁Maru	-12164
▁kaya	-12165
▁Interview	-12166
zina	-12167
▁Bre	-12168
▁kujitolea	-12169
...)	-12170
▁ujio	-12171
simamishwa	-12172
▁Ummy	-12173
▁Upinzani	-12174
▁mauti	-12175
▁Hoja	-12176
▁فارسی	-12177
▁Bene	-12178
▁Footer	-12179
▁receive	-12180
TANZANIA	-12181
▁kilo	-12182
አማ	-12183
atory	-12184
▁gone	-12185
▁background	-12186
01	-12187
koko	-12188
አማርኛ	-12189
▁Pin	-12190
▁opportunity	-12191
SW	-12192
alika	-12193
▁applications	-12194
▁✔	-12195
ffih	-12196
▁Matibabu	-12197
▁magharibi	-12198
:29	-12199
▁CD	-12200
pitio	-12201
▁Fire	-12202
▁AA	-12203
▁UEFA	-12204
ambuzi	-12205
▁PATA	-12206
▁hauru	-12207
▁Started	-12208
▁kinywa	-12209
sc	-12210
▁(95	-12211
▁54	-12212
atter	-12213
▁Concer	-12214
▁EU	-12215
hur	-12216
sco	-12217
▁1.5	-12218
▁max	-12219
")	-12220
▁dereva	-12221
▁cle	-12222
fanyike	-12223
▁kurudisha	-12224
LME	-12225
▁est	-12226
MAS	-12227
▁Paris	-12228
▁ass	-12229
like	-12230
▁wawakilishi	-12231
▁kuuliza	-12232
qa	-12233
▁uga	-12234
▁VB	-12235
▁mabomu	-12236
▁Nyama	-12237
▁Para	-12238
▁Alikuwa	-12239
▁Shindano	-12240
:34	-12241
▁mwanachama	-12242
▁char	-12243
yororo	-12244
▁chetu	-12245
Ri	-12246
▁making	-12247
▁Ukaguzi	-12248
:05	-12249
:46	-12250
erra	-12251
▁ASILI	-12252
▁engineering	-12253
inja	-12254
▁DHA	-12255
▁Kih	-12256
▁RATIBA	-12257
▁Kuelekea	-12258
▁kubadilika	-12259
unduki	-12260
▁pwani	-12261
/05/2017	-12262
▁hutumika	-12263
▁Mul	-12264
▁Mdogo	-12265
360	-12266
▁Tufuate	-12267
tibu	-12268
▁250	-12269
▁kudumisha	-12270
▁93	-12271
▁wafu	-12272
▁kadiri	-12273
▁kuchaguliwa	-12274
gri	-12275
BARA	-12276
▁Kujiunga	-12277
▁uchimbaji	-12278
▁udongo	-12279
▁utalala	-12280
▁KISWAHILI	-12281
II	-12282
▁mwanzoni	-12283
spora	-12284
▁pana	-12285
▁Kukata	-12286
FC	-12287
YAN	-12288
▁zinapo	-12289
Mimi	-12290
aker	-12291
chan	-12292
▁Gor	-12293
▁MAHAKAMANI	-12294
fupa	-12295
uklia	-12296
riage	-12297
wania	-12298
▁feki	-12299
▁madereva	-12300
kezi	-12301
▁Tro	-12302
▁pop	-12303
▁Melo	-12304
▁madiwani	-12305
▁imewa	-12306
▁Assist	-12307
fleva	-12308
▁given	-12309
shughuli	-12310
▁vipande	-12311
▁yakubali	-12312
▁MEDIA	-12313
▁Lazima	-12314
▁Insta	-12315
▁kuwekwa	-12316
hesabiwa	-12317
▁ever	-12318
rahman	-12319
▁Biteko	-12320
▁lisilo	-12321
dule	-12322
stant	-12323
JUMBE	-12324
TEKE	-12325
▁sal	-12326
lioni	-12327
▁Album	-12328
▁providing	-12329
enior	-12330
:42	-12331
▁Mazungumzo	-12332
ptop	-12333
▁quick	-12334
▁shall	-12335
▁KIKWE	-12336
CY	-12337
▁amezi	-12338
TEGO	-12339
▁wameji	-12340
▁Games	-12341
▁Lebanon	-12342
▁hatuwezi	-12343
dhifa	-12344
aro	-12345
▁san	-12346
▁||	-12347
▁Huku	-12348
▁waji	-12349
▁kumbe	-12350
tely	-12351
▁mini	-12352
▁JESHI	-12353
▁Matiang	-12354
▁maonesho	-12355
▁kilichopo	-12356
▁mitaani	-12357
▁material	-12358
▁strong	-12359
▁ReplyDelete	-12360
▁VideoMpya	-12361
13)	-12362
▁kifahari	-12363
aki	-12364
lewe	-12365
pungu	-12366
▁nidhamu	-12367
▁location	-12368
▁TECH	-12369
▁sijui	-12370
▁kuachana	-12371
▁wanaruhusiwa	-12372
▁Xi	-12373
mize	-12374
▁Master	-12375
▁hauruhusiwi	-12376
▁Zimehifadhiwa	-12377
boni	-12378
▁face	-12379
▁akifanya	-12380
▁mitandaoni	-12381
▁translate	-12382
baba	-12383
pisode	-12384
▁mifuko	-12385
inia	-12386
▁dem	-12387
▁chuki	-12388
RUGENZI	-12389
▁together	-12390
▁FROM	-12391
▁baharini	-12392
▁ZOTE	-12393
?"	-12394
zuku	-12395
▁Hero	-12396
▁Kule	-12397
bay	-12398
▁Kwenda	-12399
Forums	-12400
atokea	-12401
▁Lina	-12402
wezekani	-12403
نَ	-12404
zech	-12405
▁Amo	-12406
▁NYI	-12407
▁utaona	-12408
▁block	-12409
▁second	-12410
▁UCHA	-12411
JIPANGA	-12412
ulize	-12413
humuni	-12414
▁(43	-12415
▁Image	-12416
▁Guinea	-12417
▁Mbunifu	-12418
aaaa	-12419
ough	-12420
/200	-12421
▁kumalizika	-12422
▁zinazotolewa	-12423
▁Cars	-12424
▁associ	-12425
▁kuhudumia	-12426
hus	-12427
▁1.0	-12428
▁Unit	-12429
furiko	-12430
▁point	-12431
valia	-12432
▁wait	-12433
123	-12434
strum	-12435
dirisha	-12436
cational	-12437
▁mikubwa	-12438
cheni	-12439
▁connec	-12440
▁Msemaji	-12441
▁ushiriki	-12442
lit	-12443
▁(66)	-12444
َل	-12445
▁Lili	-12446
▁books	-12447
▁Bonyeza	-12448
▁stories	-12449
▁Iliyopita	-12450
comm	-12451
▁Toa	-12452
hamishwa	-12453
58	-12454
cko	-12455
▁Hol	-12456
▁Water	-12457
▁Daraja	-12458
▁TEK	-12459
▁partic	-12460
▁Chaneli	-12461
▁Updated	-12462
▁kung	-12463
▁Ambayo	-12464
▁Tuta	-12465
▁kusajili	-12466
▁nilipo	-12467
▁Express	-12468
▁kusubiri	-12469
▁gos	-12470
▁Images	-12471
▁kikomo	-12472
86)	-12473
mwambia	-12474
▁analysis	-12475
overy	-12476
▁Mubashara	-12477
▁kemikali	-12478
holic	-12479
▁KUPITIA	-12480
Ina	-12481
KUZI	-12482
▁Andy	-12483
▁Chaguo	-12484
tty	-12485
▁imewasilishwa	-12486
▁promo	-12487
▁Yakobo	-12488
bato	-12489
▁aliyem	-12490
/7	-12491
Home	-12492
▁MBE	-12493
vamia	-12494
kanusha	-12495
▁ifikapo	-12496
Es	-12497
▁utumishi	-12498
▁SP	-12499
▁Hisa	-12500
▁WOTE	-12501
▁Kujifunza	-12502
▁tuko	-12503
▁Wama	-12504
zeki	-12505
patiwa	-12506
▁Dhabi	-12507
▁Ash	-12508
▁others	-12509
▁plastiki	-12510
▁GDP	-12511
▁kib	-12512
▁Brand	-12513
▁washirika	-12514
▁Hila	-12515
▁Ukiwa	-12516
lada	-12517
▁mishahara	-12518
medi	-12519
erezani	-12520
▁Kalonzo	-12521
▁kuaminika	-12522
til	-12523
▁KUP	-12524
▁ugumu	-12525
▁va	-12526
▁wachanga	-12527
unganishwa	-12528
▁televisheni	-12529
▁uwa	-12530
kinga	-12531
▁mlima	-12532
▁Shilingi	-12533
zeni	-12534
kagua	-12535
▁fashion	-12536
▁inapaswa	-12537
▁PB	-12538
▁MIN	-12539
▁kuachia	-12540
▁WANGU	-12541
pitishwa	-12542
gala	-12543
barikiwe	-12544
简体	-12545
wale	-12546
▁tuliyo	-12547
▁taji	-12548
▁kutetea	-12549
MOTO	-12550
Mtima	-12551
misha	-12552
Ne	-12553
▁Ig	-12554
▁uovu	-12555
▁kupangisha	-12556
CEF	-12557
sawa	-12558
▁Say	-12559
lators	-12560
▁WENYE	-12561
54	-12562
▁Mode	-12563
▁kufanyiwa	-12564
▁UMMA	-12565
itumia	-12566
pective	-12567
▁Kudumu	-12568
▁huzuni	-12569
ED	-12570
▁Manage	-12571
▁zuri	-12572
▁Spring	-12573
▁install	-12574
▁fahamu	-12575
▁mnyama	-12576
▁likiwa	-12577
MASHAURI	-12578
▁ufugaji	-12579
▁wenzetu	-12580
▁wachimbaji	-12581
▁CHINI	-12582
MLA	-12583
LAMA	-12584
▁Nation	-12585
▁Hongera	-12586
▁kimwili	-12587
▁kuoko	-12588
▁Japanese	-12589
▁pikipiki	-12590
▁angani	-12591
▁ubongo	-12592
writing	-12593
▁nyuklia	-12594
▁Asi	-12595
▁ROHO	-12596
▁Ushuhuda	-12597
▁Bafu	-12598
▁Econ	-12599
▁Tele	-12600
iza	-12601
whi	-12602
▁mkazi	-12603
277	-12604
▁Urdu	-12605
▁blogu	-12606
▁fikra	-12607
ishukuru	-12608
▁implement	-12609
▁Sat	-12610
▁Files	-12611
▁Sonko	-12612
▁Inaonekana	-12613
▁SD	-12614
▁NILI	-12615
▁(220)	-12616
▁Market	-12617
fikiwa	-12618
▁Sing	-12619
▁uchi	-12620
▁Bahari	-12621
▁mashi	-12622
andikia	-12623
Burudani	-12624
▁PRE	-12625
▁Malawi	-12626
▁individ	-12627
▁amefanya	-12628
▁Nch	-12629
▁Ilala	-12630
▁Halima	-12631
▁Uzalishaji	-12632
▁wamiliki	-12633
vian	-12634
▁chai	-12635
tengwa	-12636
▁young	-12637
WEKA	-12638
▁far	-12639
wikipedia	-12640
▁technical	-12641
esta	-12642
▁NGUVU	-12643
furahisha	-12644
mond	-12645
▁(219)	-12646
bini	-12647
▁mki	-12648
▁Huko	-12649
▁effec	-12650
▁example	-12651
▁MIFU	-12652
▁zikiwa	-12653
tk	-12654
▁SGA	-12655
▁Sch	-12656
angazi	-12657
chelewa	-12658
▁Ngo	-12659
rical	-12660
ANY	-12661
juu	-12662
wp	-12663
▁الل	-12664
▁WAKI	-12665
▁chao	-12666
▁Kagame	-12667
taratibu	-12668
▁Kira	-12669
▁Stephen	-12670
▁68	-12671
▁Comedy	-12672
▁Joshua	-12673
▁Plugin	-12674
mina	-12675
▁uaminifu	-12676
▁suluhisho	-12677
:47	-12678
▁BENKI	-12679
ases	-12680
yetu	-12681
▁KUKA	-12682
▁Women	-12683
▁Huenda	-12684
▁kugundua	-12685
anti	-12686
▁Amri	-12687
▁Fast	-12688
▁Muswada	-12689
▁HADI	-12690
▁✘	-12691
▁ndefu	-12692
mission	-12693
▁reading	-12694
gopa	-12695
HUSIANO	-12696
ENGA	-12697
SEMA	-12698
▁kheri	-12699
▁Watetezi	-12700
▁Reg	-12701
▁KIKA	-12702
▁Omba	-12703
▁tajiri	-12704
Map	-12705
▁WEMA	-12706
▁kimsingi	-12707
▁kuonesha	-12708
:51	-12709
▁Ataka	-12710
cally	-12711
▁kujitokeza	-12712
anachama	-12713
▁vipindi	-12714
▁matarajio	-12715
▁Kha	-12716
▁mahindi	-12717
▁Vinywaji	-12718
▁Muta	-12719
▁vol	-12720
▁Maziwa	-12721
▁Rangi	-12722
rean	-12723
ereum	-12724
▁Kuku	-12725
▁mitihani	-12726
▁WATUMISHI	-12727
▁kisu	-12728
bon	-12729
got	-12730
▁Bad	-12731
TES	-12732
▁comp	-12733
▁control	-12734
:48	-12735
▁MGA	-12736
TUP	-12737
guru	-12738
live	-12739
▁$100	-12740
▁Kidato	-12741
▁id	-12742
▁Any	-12743
▁Nifahamu	-12744
Ch	-12745
BLE	-12746
▁Ole	-12747
paswi	-12748
▁kal	-12749
PAKA	-12750
▁kioo	-12751
▁MRADI	-12752
▁Kuhudhuria	-12753
▁madeni	-12754
rin	-12755
▁hatia	-12756
vunjika	-12757
ately	-12758
▁Tambua	-12759
▁2016,	-12760
▁Jesus	-12761
▁sharti	-12762
bob	-12763
fashions	-12764
▁Bima	-12765
▁Type	-12766
▁(42	-12767
SILIANA	-12768
:59	-12769
▁vin	-12770
▁hourly	-12771
unja	-12772
▁Organi	-12773
▁imetoa	-12774
ism	-12775
String	-12776
bainika	-12777
▁Joy	-12778
▁Adamu	-12779
▁compe	-12780
▁Mratibu	-12781
TIONAL	-12782
▁bayana	-12783
ggz	-12784
▁jadi	-12785
▁sarafuUSD	-12786
▁Same	-12787
▁mwenendo	-12788
blogspot	-12789
▁Maaskofu	-12790
▁MY	-12791
sasa	-12792
▁starehe	-12793
▁Continue	-12794
4).	-12795
▁Sena	-12796
▁Tiếng	-12797
▁Hebrew	-12798
▁chumvi	-12799
▁developing	-12800
Una	-12801
:41	-12802
▁kupo	-12803
pendavyo	-12804
angiwa	-12805
▁License	-12806
estival	-12807
ching	-12808
▁Mashabiki	-12809
▁UB	-12810
▁Bernard	-12811
02	-12812
▁radhi	-12813
▁Philip	-12814
▁Sikukuu	-12815
▁SportPesa	-12816
RANI	-12817
▁Omary	-12818
download	-12819
▁Wap	-12820
▁SERVI	-12821
▁Usafiri	-12822
06	-12823
▁Dira	-12824
▁ufundi	-12825
zari	-12826
▁SISI	-12827
▁completed	-12828
zimu	-12829
▁UJA	-12830
▁lead	-12831
lities	-12832
Mb	-12833
▁law	-12834
▁TUNA	-12835
▁Wakazi	-12836
▁Account	-12837
▁ukawa	-12838
amburo	-12839
▁Makadirio	-12840
▁Miguu	-12841
simulia	-12842
arabu	-12843
▁USHAURI	-12844
▁makusudi	-12845
heka	-12846
thony	-12847
▁Hed	-12848
▁mshambuliaji	-12849
Like	-12850
rejesha	-12851
▁ARD	-12852
▁box	-12853
▁kitchen	-12854
.10	-12855
▁Geo	-12856
▁FREE	-12857
▁Haiti	-12858
burg	-12859
▁Certi	-12860
▁Mganga	-12861
▁icon	-12862
▁kutua	-12863
▁uhaba	-12864
▁Morocco	-12865
▁utengenezaji	-12866
plomasia	-12867
ridhisha	-12868
▁watakatifu	-12869
Tb	-12870
▁Glo	-12871
▁sel	-12872
fully	-12873
:50	-12874
andami	-12875
▁ufadhili	-12876
▁kufikiria	-12877
▁Matengenezo	-12878
els	-12879
▁bit	-12880
▁AMKA	-12881
▁akisalimiana	-12882
forms	-12883
/-	-12884
▁mwanamume	-12885
web	-12886
▁Mel	-12887
▁Wolper	-12888
▁Kuanzia	-12889
▁ameeleza	-12890
kabila	-12891
▁tunataka	-12892
▁Zikomo	-12893
fikishwa	-12894
▁Ngumi	-12895
▁Others	-12896
Query	-12897
cially	-12898
▁TANESCO	-12899
ug	-12900
▁mbolea	-12901
dhini	-12902
▁SOKA	-12903
▁Taji	-12904
▁ALIYE	-12905
))	-12906
▁mwako	-12907
▁villa	-12908
RIKIANO	-12909
cuments	-12910
TT	-12911
hd	-12912
berg	-12913
▁utata	-12914
desamburo	-12915
dar	-12916
▁MWANZO	-12917
▁developers	-12918
Kenya	-12919
vuli	-12920
▁Upya	-12921
▁bibi	-12922
▁Kazakh	-12923
FANYIKA	-12924
▁alini	-12925
pg	-12926
▁pipe	-12927
▁kutikisa	-12928
nis	-12929
emeke	-12930
▁Kile	-12931
▁ulaya	-12932
simamiwa	-12933
▁NYIMBO	-12934
▁Acha	-12935
▁heri	-12936
ishika	-12937
▁Object	-12938
▁HALMASHAURI	-12939
most	-12940
siku	-12941
Nili	-12942
▁VITU	-12943
▁JUMATATU	-12944
▁financial	-12945
soka	-12946
▁Homa	-12947
rectly	-12948
batilisha	-12949
hila	-12950
▁Piga	-12951
▁cri	-12952
adcast	-12953
▁kutisha	-12954
▁near	-12955
-6	-12956
lix	-12957
▁Cou	-12958
▁MGO	-12959
▁bwawa	-12960
▁kuinua	-12961
indikaji	-12962
▁Mwanaume	-12963
▁Viti	-12964
▁kunipa	-12965
▁atakapo	-12966
ota	-12967
▁HARUSI	-12968
▁KIKO	-12969
▁kuiba	-12970
▁uzuri	-12971
FL	-12972
▁imeanza	-12973
:58	-12974
▁PC	-12975
pitwe	-12976
▁sever	-12977
ortugal	-12978
vumilia	-12979
▁Krismasi	-12980
▁95	-12981
▁Downloads	-12982
▁Hami	-12983
▁kuzaa	-12984
▁wamesha	-12985
komboa	-12986
▁ARDHI	-12987
TAJI	-12988
▁Gas	-12989
▁pamba	-12990
rant	-12991
▁SGAMES	-12992
:35	-12993
▁uw	-12994
lasi	-12995
▁kutupa	-12996
▁FT	-12997
▁uti	-12998
▁peace	-12999
▁pdf	-13000
▁Uingizaji	-13001
▁akubariki	-13002
▁Mwanafunzi	-13003
▁CLO	-13004
zuiwa	-13005
▁Salum	-13006
:54	-13007
▁Cli	-13008
VUTI	-13009
uf	-13010
▁(3,	-13011
▁Urban	-13012
▁Family	-13013
▁Hadiyth	-13014
▁Marafiki	-13015
zom	-13016
ency	-13017
tifaki	-13018
chezea	-13019
▁Ijayo	-13020
FE	-13021
vuka	-13022
▁hususani	-13023
cur	-13024
DIAN	-13025
type	-13026
▁mmiliki	-13027
▁MAKU	-13028
▁Rid	-13029
▁Odds	-13030
▁kich	-13031
new	-13032
▁$22	-13033
▁HAI	-13034
▁HOS	-13035
-07	-13036
zembe	-13037
▁Jama	-13038
mercial	-13039
▁contain	-13040
▁econ	-13041
▁wawa	-13042
▁total	-13043
yanmar	-13044
▁fully	-13045
▁Kolabo	-13046
▁convert	-13047
▁entries	-13048
▁traffic	-13049
rious	-13050
▁nuru	-13051
▁Quality	-13052
▁92	-13053
▁ml	-13054
▁Jackson	-13055
▁Princess	-13056
▁Hope	-13057
▁Mitume	-13058
▁Kuajiri	-13059
▁tulikuwa	-13060
▁Coast	-13061
▁road	-13062
▁medical	-13063
11)	-13064
kirita	-13065
▁windows	-13066
faya	-13067
▁campaign	-13068
nas	-13069
▁imesa	-13070
▁Send	-13071
▁AG	-13072
silisha	-13073
▁anacho	-13074
▁case	-13075
▁bukoba	-13076
▁Karatasi	-13077
SOMA	-13078
▁ustawi	-13079
▁Changamoto	-13080
▁Ibra	-13081
▁amesha	-13082
▁Maumivu	-13083
▁alieleza	-13084
▁kufanywa	-13085
▁Kale	-13086
kufanya	-13087
tro	-13088
dhihirisha	-13089
▁Kubadilisha	-13090
spoti	-13091
▁THIS	-13092
vulana	-13093
▁mgumu	-13094
:01	-13095
ential	-13096
▁BAHATI	-13097
lole	-13098
▁Island	-13099
▁history	-13100
▁kahawa	-13101
▁DCI	-13102
▁mbingu	-13103
▁Kaka	-13104
Katika	-13105
ENU	-13106
elly	-13107
▁Uga	-13108
ament	-13109
emason	-13110
▁candi	-13111
▁MAREKANI	-13112
MINI	-13113
▁capa	-13114
dishaji	-13115
▁Utengenezaji	-13116
▁DUNI	-13117
enes	-13118
▁maovu	-13119
▁haifai	-13120
mbie	-13121
▁01,	-13122
▁NAMBA	-13123
▁Afanya	-13124
▁Angular	-13125
stic	-13126
▁kufanyia	-13127
▁Mate	-13128
▁Siha	-13129
assets	-13130
ramework	-13131
OKO	-13132
sel	-13133
http	-13134
vyofanya	-13135
▁(52)	-13136
▁Ol	-13137
LINE	-13138
▁12:00	-13139
▁Mpangilio	-13140
enyeke	-13141
▁topic	-13142
▁MPANGO	-13143
▁uandishi	-13144
▁Lishe	-13145
▁strate	-13146
▁utakapo	-13147
Res	-13148
▁1996	-13149
▁Comple	-13150
▁Kudhibiti	-13151
▁zimekuwa	-13152
▁Bon	-13153
amshi	-13154
▁(153)	-13155
▁Finance	-13156
▁display	-13157
ANDI	-13158
kuliwa	-13159
rutubisho	-13160
▁kukupa	-13161
ometa	-13162
▁ngome	-13163
THO	-13164
law	-13165
▁12.	-13166
▁Thomas	-13167
▁uuzaji	-13168
INU	-13169
▁Lucas	-13170
▁recent	-13171
▁yaliyofanyika	-13172
▁kabila	-13173
▁Act	-13174
▁ATOA	-13175
▁walisema	-13176
pewe	-13177
▁hap	-13178
▁Mail	-13179
alisema	-13180
▁vidonge	-13181
Rom	-13182
▁wish	-13183
▁HEA	-13184
▁MAL	-13185
▁Fanya	-13186
vido	-13187
achwa	-13188
▁Josep	-13189
▁Mnamo	-13190
gian	-13191
▁Tul	-13192
riadi	-13193
▁CHAMA	-13194
▁Abdulrahman	-13195
lize	-13196
siki	-13197
▁bath	-13198
zza	-13199
▁MADINI	-13200
▁WETU	-13201
▁(177)	-13202
:2	-13203
omoni	-13204
Mag	-13205
Android	-13206
orosho	-13207
eshinda	-13208
▁Portal	-13209
zin	-13210
▁BALOZI	-13211
▁Prayer	-13212
▁favorite	-13213
tofautiana	-13214
cili	-13215
▁Start	-13216
▁believe	-13217
bilities	-13218
TCH	-13219
YOTA	-13220
▁unga	-13221
▁DIP	-13222
platnumz	-13223
▁Location	-13224
▁ahsante	-13225
aruji	-13226
amboni	-13227
▁Labda	-13228
▁worked	-13229
▁Experts	-13230
iona	-13231
onzi	-13232
▁maadui	-13233
▁Kong	-13234
vestment	-13235
▁Nchemba	-13236
anto	-13237
▁designs	-13238
anzwa	-13239
fikie	-13240
▁Binafsi	-13241
▁Denmark	-13242
▁CE	-13243
▁WAA	-13244
▁KUSA	-13245
▁Muga	-13246
▁Amiri	-13247
▁asilia	-13248
pire	-13249
▁fan	-13250
▁Discus	-13251
:39	-13252
▁ASP	-13253
▁Bofya	-13254
▁Inapo	-13255
▁wakala	-13256
▁Shuhuda	-13257
javascript	-13258
Ayo	-13259
▁nyekundu	-13260
rison	-13261
▁Care	-13262
▁attra	-13263
▁Riwaya	-13264
crip	-13265
▁Kasi	-13266
cellent	-13267
ftari	-13268
moto	-13269
▁Kuru	-13270
▁duni	-13271
▁ngapi	-13272
▁uwazi	-13273
▁wakawa	-13274
▁Macho	-13275
essiona	-13276
▁TEKNOLOJIA	-13277
▁Professional	-13278
wm	-13279
▁BBI	-13280
▁kuondolewa	-13281
▁Pars	-13282
▁usingizi	-13283
▁20175	-13284
▁macha	-13285
-)	-13286
-25	-13287
▁anatu	-13288
▁ANGALIA	-13289
▁Demo	-13290
▁People	-13291
▁Ukristo	-13292
List	-13293
▁88	-13294
Rais	-13295
▁Land	-13296
▁Gumzo	-13297
:37	-13298
▁Bien	-13299
kosoa	-13300
kwepa	-13301
umbwa	-13302
▁Yuda	-13303
▁rate	-13304
▁spread	-13305
lski	-13306
bofya	-13307
▁mwamba	-13308
▁VA	-13309
▁Luga	-13310
ala	-13311
▁WAKU	-13312
▁kupungua	-13313
▁index	-13314
▁Bwawa	-13315
▁Bibles	-13316
▁tunawa	-13317
▁Wilayani	-13318
▁plus	-13319
INGIRA	-13320
ли	-13321
▁ACA	-13322
▁Mha	-13323
▁voice	-13324
▁Opport	-13325
gelea	-13326
▁Grace	-13327
▁mtaji	-13328
ZITO	-13329
dhiri	-13330
▁tazama	-13331
▁ilivyokuwa	-13332
▁thread	-13333
▁creating	-13334
▁iwezekana	-13335
▁Ads	-13336
▁PAMOJA	-13337
▁Switch	-13338
▁SITA	-13339
▁kuondo	-13340
fications	-13341
▁Miji	-13342
▁AKUTANA	-13343
▁mwanawe	-13344
teka	-13345
▁everything	-13346
▁hebu	-13347
:57	-13348
▁Miner	-13349
▁Mbatia	-13350
▁fal	-13351
▁Kipya	-13352
▁Swalah	-13353
▁umakini	-13354
anaa	-13355
▁LOVE	-13356
▁katibu	-13357
:06	-13358
▁302	-13359
▁Ndesamburo	-13360
body	-13361
▁Maandiko	-13362
▁watuhumiwa	-13363
▁Rock	-13364
▁SEN	-13365
▁kikazi	-13366
ROHO	-13367
▁Exp	-13368
samehe	-13369
kutz	-13370
▁Sema	-13371
met	-13372
▁Miguna	-13373
▁vinginevyo	-13374
RSHI	-13375
▁Paa	-13376
dada	-13377
▁(97	-13378
▁enable	-13379
cke	-13380
mis	-13381
▁VVU	-13382
▁1997	-13383
pendelea	-13384
▁kuzindua	-13385
:08	-13386
▁sample	-13387
▁paa	-13388
▁(61)	-13389
▁hakikisha	-13390
▁Embassy	-13391
NY	-13392
▁chance	-13393
bakia	-13394
▁majimbo	-13395
▁iwezekanavyo	-13396
▁DES	-13397
▁Fund	-13398
:04	-13399
▁Desktop	-13400
▁Bukuku	-13401
yarwanda	-13402
▁alianza	-13403
▁ametangaza	-13404
ella	-13405
▁Semina	-13406
▁intaneti	-13407
▁created	-13408
tovu	-13409
andani	-13410
▁atawa	-13411
▁Msajili	-13412
▁maono	-13413
▁kutekelezwa	-13414
ANII	-13415
rief	-13416
▁NDU	-13417
CATION	-13418
KUKURU	-13419
wende	-13420
anyifu	-13421
▁graphics	-13422
TM	-13423
▁range	-13424
▁white	-13425
Dizzim	-13426
▁WIMBO	-13427
▁Shukrani	-13428
▁important	-13429
▁kusitisha	-13430
lax	-13431
▁KIBA	-13432
▁Masomo	-13433
▁tradem	-13434
▁Bariadi	-13435
▁mkurugenzi	-13436
hra	-13437
▁ametu	-13438
:33	-13439
▁az	-13440
FIKI	-13441
andoa	-13442
DY	-13443
dict	-13444
▁THA	-13445
kelezwa	-13446
▁KUZI	-13447
▁(80	-13448
▁***	-13449
▁Kamili	-13450
▁MATUMIZI	-13451
▁USHIRIKIANO	-13452
buru	-13453
▁nadhani	-13454
▁Advanced	-13455
PLY	-13456
VEN	-13457
▁SPI	-13458
▁Sakafu	-13459
jihusisha	-13460
▁hospitalini	-13461
▁mzozo	-13462
▁restaur	-13463
▁utaweza	-13464
▁watalii	-13465
▁washindi	-13466
▁waliopo	-13467
Web	-13468
kamu	-13469
tura	-13470
wesome	-13471
▁label	-13472
▁party	-13473
▁Unataka	-13474
▁TOP	-13475
▁kutia	-13476
▁kitaalamu	-13477
▁Philippines	-13478
head	-13479
▁akiongea	-13480
Subscri	-13481
▁Student	-13482
▁Utabiri	-13483
▁INAENDELEA	-13484
athiriwa	-13485
▁Vanessa	-13486
loli	-13487
▁AFC	-13488
▁Catholic	-13489
▁trademarks	-13490
:52	-13491
▁Kenyan	-13492
iling	-13493
▁noti	-13494
▁tool	-13495
change	-13496
▁Wo	-13497
▁kuolewa	-13498
sher	-13499
▁nembo	-13500
ource	-13501
▁Vin	-13502
▁kukidhi	-13503
▁Kana	-13504
ase	-13505
reau	-13506
LALA	-13507
▁Fix	-13508
/02/2017	-13509
aded	-13510
angili	-13511
▁Majengo	-13512
▁ukarabati	-13513
MKE	-13514
▁haswa	-13515
safi	-13516
▁Dimba	-13517
▁akiba	-13518
▁begin	-13519
▁front	-13520
▁Hid	-13521
▁Kamba	-13522
▁package	-13523
zuizi	-13524
▁Questions	-13525
▁JamiiForums	-13526
▁UI	-13527
▁KHA	-13528
▁rega	-13529
▁Times	-13530
▁61	-13531
▁ask	-13532
▁Stru	-13533
▁Kahama	-13534
▁wanahitaji	-13535
pore	-13536
▁Ann	-13537
komeza	-13538
▁Ufunuo	-13539
▁Vituko	-13540
▁kuelezea	-13541
/2011	-13542
▁Dany	-13543
▁equi	-13544
▁aitwa	-13545
▁Associ	-13546
▁Muonekano	-13547
rou	-13548
▁Chrome	-13549
▁DUNIANI	-13550
▁Ethereum	-13551
angwani	-13552
cm	-13553
yl	-13554
▁MILI	-13555
enyekevu	-13556
▁Bootstrap	-13557
▁wahamiaji	-13558
▁Spongebob	-13559
▁Okt	-13560
▁PPT	-13561
IL	-13562
shukiwa	-13563
umie	-13564
▁Dogo	-13565
▁TODAY	-13566
▁Ununuzi	-13567
FARIKI	-13568
ridhia	-13569
▁payment	-13570
▁Yule	-13571
oring	-13572
▁tran	-13573
▁highly	-13574
▁kukataa	-13575
▁amefariki	-13576
▁Jua	-13577
miria	-13578
gree	-13579
▁Mua	-13580
▁goli	-13581
September	-13582
mir	-13583
▁employe	-13584
SHIND	-13585
▁NISHA	-13586
vironment	-13587
kanzwa	-13588
▁Samson	-13589
▁talk	-13590
Mt	-13591
▁Madhara	-13592
▁Maudhui	-13593
▁Primary	-13594
▁uthibit	-13595
:*	-13596
▁haikuwa	-13597
▁ufuatiliaji	-13598
dad	-13599
yes	-13600
▁MTUME	-13601
▁Mseto	-13602
▁result	-13603
▁problem	-13604
▁album	-13605
husiwa	-13606
▁Mwe	-13607
▁Thi	-13608
▁Bali	-13609
▁Banda	-13610
▁Scholarship	-13611
▁mtengenezaji	-13612
▁season	-13613
FAHAMU	-13614
awa	-13615
cerpt	-13616
▁KUPATA	-13617
▁akiwemo	-13618
hel	-13619
▁Maamuzi	-13620
UNDU	-13621
▁Vis	-13622
pendeleo	-13623
▁KUTA	-13624
▁Single	-13625
▁tara	-13626
▁UVCCM	-13627
▁chanya	-13628
MK	-13629
Kita	-13630
ONGA	-13631
▁GDPR	-13632
▁Rashid	-13633
▁kongamano	-13634
undani	-13635
▁Dada	-13636
▁Msimu	-13637
▁msiba	-13638
endelezo	-13639
▁Saratani	-13640
nau	-13641
▁Futa	-13642
▁exten	-13643
▁kufundisha	-13644
ori	-13645
love	-13646
kiria	-13647
▁utunzaji	-13648
star	-13649
nayo	-13650
harakati	-13651
▁UWEKEZAJI	-13652
BIA	-13653
▁mins	-13654
▁poll	-13655
▁inaitwa	-13656
▁welcome	-13657
▁Os	-13658
▁Ugaidi	-13659
INDA	-13660
111	-13661
▁kuitwa	-13662
tayari	-13663
chambua	-13664
▁Wayahudi	-13665
PIGA	-13666
ires	-13667
orodh	-13668
▁four	-13669
▁learn	-13670
08	-13671
▁Kununua	-13672
▁Dondoo	-13673
▁tuma	-13674
▁little	-13675
Is	-13676
▁Mazoezi	-13677
GIZA	-13678
▁Cru	-13679
▁ziwe	-13680
CCR	-13681
utch	-13682
FANY	-13683
▁usaidizi	-13684
Tips	-13685
▁kiraia	-13686
▁Document	-13687
▁Mj	-13688
adamu	-13689
▁seli	-13690
▁Binti	-13691
▁Index	-13692
lifu	-13693
▁kuwafanya	-13694
▁mahaba	-13695
▁mistari	-13696
▁kunyongwa	-13697
▁kupendeza	-13698
▁85	-13699
anking	-13700
fashion	-13701
▁afisa	-13702
fikiaji	-13703
▁kilikuwa	-13704
add	-13705
iba	-13706
venue	-13707
▁(282)	-13708
sayansi	-13709
omy	-13710
▁Robo	-13711
hudhuri	-13712
kadiria	-13713
▁identi	-13714
▁󱠃	-13715
▁Tum	-13716
▁MUHIMU	-13717
▁linkedin	-13718
▁Asubuhi	-13719
Book	-13720
▁var	-13721
▁STORI	-13722
PORA	-13723
▁11.	-13724
▁mrembo	-13725
inian	-13726
▁Mkewe	-13727
▁Uwekaji	-13728
▁KIROHO	-13729
▁Kifungu	-13730
▁MAKINIKA	-13731
▁Bongomovies	-13732
▁Oti	-13733
umbufu	-13734
▁wamesema	-13735
▁74	-13736
▁yaku	-13737
tumaji	-13738
▁Upimaji	-13739
▁MSINGI	-13740
▁Wanachama	-13741
wever	-13742
boreshwa	-13743
kutanisha	-13744
▁Production	-13745
DIANBET	-13746
▁kanisani	-13747
▁Attribution	-13748
300	-13749
tumbo	-13750
▁Temeke	-13751
▁Vipimo	-13752
????	-13753
endwa	-13754
▁bandia	-13755
▁maegesho	-13756
eg	-13757
▁tafiti	-13758
wama	-13759
▁ktk	-13760
▁Chapa	-13761
hima	-13762
▁Nuh	-13763
▁pass	-13764
▁ushuru	-13765
▁maswala	-13766
▁Kikundi	-13767
▁Anaye	-13768
▁Confi	-13769
▁updated	-13770
▁!!	-13771
▁Hard	-13772
▁VYOMBO	-13773
▁kuadhimisha	-13774
▁YATOA	-13775
▁several	-13776
▁kuchapisha	-13777
gambo	-13778
▁Malalamiko	-13779
FUNGU	-13780
▁Head	-13781
▁Setup	-13782
▁Kol	-13783
▁sun	-13784
umbaji	-13785
▁==	-13786
▁nipo	-13787
▁sokoni	-13788
▁Simple	-13789
▁mchekeshaji	-13790
▁hr	-13791
▁Bot	-13792
▁Subject	-13793
▁training	-13794
psum	-13795
▁SADC	-13796
▁Central	-13797
▁Classic	-13798
▁ي	-13799
▁Hip	-13800
▁Posta	-13801
▁CHANGA	-13802
amsha	-13803
asino	-13804
▁Akili	-13805
▁ukame	-13806
LP	-13807
▁whatsapp	-13808
▁MASWALI	-13809
▁attached	-13810
▁linaweza	-13811
GHT	-13812
pangiwa	-13813
▁kifupi	-13814
▁rehema	-13815
RN	-13816
▁skin	-13817
▁nzito	-13818
shangaza	-13819
▁kujieleza	-13820
▁AINA	-13821
▁Price	-13822
pomedia	-13823
▁vipaji	-13824
▁Sina	-13825
lig	-13826
▁PROF	-13827
▁Wawili	-13828
▁kitanzania	-13829
▁naibu	-13830
▁activities	-13831
JV	-13832
▁255	-13833
▁CUP	-13834
▁Wall	-13835
▁MAPENZI	-13836
▁kupumzika	-13837
▁Idris	-13838
arth	-13839
enia	-13840
▁Chat	-13841
▁nyinyi	-13842
▁157	-13843
nes	-13844
jaki	-13845
twitter	-13846
biy	-13847
▁Bongofleva	-13848
▁KALI	-13849
▁Mago	-13850
▁MATANGA	-13851
▁fund	-13852
▁mean	-13853
▁Tibason	-13854
dos	-13855
▁eti	-13856
▁red	-13857
ASISI	-13858
RODHA	-13859
▁fire	-13860
blogger	-13861
ambulika	-13862
zame	-13863
▁Parent	-13864
▁wameweka	-13865
tembea	-13866
▁MWEZI	-13867
▁fundi	-13868
HIBITI	-13869
▁Josephat	-13870
▁Czech	-13871
eseka	-13872
▁Hedhi	-13873
▁vyetu	-13874
wona	-13875
Hello	-13876
▁Nokia	-13877
▁kondoo	-13878
▁MAZINGIRA	-13879
lore	-13880
tukuza	-13881
▁Indonesian	-13882
▁Sti	-13883
▁walizo	-13884
▁JOHN	-13885
▁unam	-13886
timingi	-13887
لا	-13888
▁Faki	-13889
▁Funga	-13890
▁shusha	-13891
▁IV	-13892
▁inakuja	-13893
▁Items	-13894
▁Mitimingi	-13895
GB	-13896
▁STE	-13897
▁Eazi	-13898
▁UHURU	-13899
▁Diwani	-13900
▁Martha	-13901
▁HekaHeka	-13902
RP	-13903
▁Ak	-13904
▁$40	-13905
▁forward	-13906
▁Analytics	-13907
shani	-13908
▁Polski	-13909
▁≡	-13910
▁Ty	-13911
▁BON	-13912
▁Bla	-13913
tre	-13914
▁Pra	-13915
▁cheo	-13916
▁Seneta	-13917
▁Ce	-13918
emix	-13919
▁aliji	-13920
Hali	-13921
▁inatu	-13922
▁Utendakazi	-13923
Sha	-13924
▁kifua	-13925
▁waj	-13926
▁UNICEF	-13927
▁inamaanisha	-13928
▁ads	-13929
lism	-13930
▁Pop	-13931
▁kilometa	-13932
umbiji	-13933
▁DVD	-13934
▁MAKTABA	-13935
▁ageukia	-13936
▁ushawishi	-13937
▁SENSA	-13938
sio	-13939
ships	-13940
Chadema	-13941
▁town	-13942
Hu	-13943
roo	-13944
▁kusu	-13945
▁Rudishwa	-13946
hen	-13947
▁mf	-13948
▁Hamisi	-13949
tton	-13950
▁Hur	-13951
emale	-13952
verse	-13953
▁Putin	-13954
▁Cle	-13955
▁sugu	-13956
ONGOZA	-13957
simba	-13958
▁Ukimwi	-13959
▁zozote	-13960
▁bendera	-13961
ENGO	-13962
▁Thai	-13963
▁NDOTO	-13964
▁Ufufuo	-13965
din	-13966
▁(46	-13967
rivia	-13968
▁Usipitwe	-13969
WALA	-13970
▁bil	-13971
▁vib	-13972
▁meneja	-13973
ingapore	-13974
▁archive	-13975
▁kinaweza	-13976
United	-13977
▁Melody	-13978
wino	-13979
▁mbona	-13980
▁ndilo	-13981
▁fasihi	-13982
▁continu	-13983
rfi	-13984
ples	-13985
▁Rug	-13986
emala	-13987
▁Shambu	-13988
▁Gharama	-13989
▁Serikalini	-13990
▁Wakurugenzi	-13991
▁GU	-13992
▁ndizo	-13993
wasiliana	-13994
sheet	-13995
▁homa	-13996
▁mamia	-13997
▁Misa	-13998
TAKATI	-13999
▁mandhari	-14000
IDIA	-14001
elimu	-14002
▁Heri	-14003
▁mayai	-14004
umbiana	-14005
▁ujasiri	-14006
TANI	-14007
▁Ongeza	-14008
▁600	-14009
▁DHIDI	-14010
▁figo	-14011
▁mur	-14012
▁carefu	-14013
▁Augustine	-14014
vadi	-14015
changanya	-14016
▁Men	-14017
▁Meta	-14018
▁ILIYO	-14019
▁wanawa	-14020
▁translator	-14021
umuia	-14022
▁UCHUMI	-14023
▁USAJILI	-14024
uso	-14025
mama	-14026
▁Ath	-14027
▁SEC	-14028
▁tupu	-14029
▁Khamis	-14030
:09	-14031
ghted	-14032
unguu	-14033
▁Rapa	-14034
GRAM	-14035
▁pata	-14036
ISLAMU	-14037
bianchi	-14038
angamano	-14039
▁sanduku	-14040
zinga	-14041
▁CHUO	-14042
▁kuf	-14043
,000.	-14044
▁kujengwa	-14045
▁wanatakiwa	-14046
▁might	-14047
▁upanga	-14048
▁Pal	-14049
▁JEMBE	-14050
▁kificho	-14051
▁serikalini	-14052
▁prefer	-14053
ombolezo	-14054
▁Statement	-14055
HCR	-14056
▁Button	-14057
▁zijazo	-14058
▁black	-14059
▁commit	-14060
▁sty	-14061
▁sus	-14062
ports	-14063
▁Night	-14064
▁maofisa	-14065
hitimisha	-14066
▁Necessary	-14067
wita	-14068
▁Everton	-14069
dari	-14070
▁4.5	-14071
Dar	-14072
BOLA	-14073
▁Iwapo	-14074
▁Othman	-14075
▁ate	-14076
▁Visit	-14077
batizwa	-14078
▁Kinana	-14079
LC	-14080
▁Gal	-14081
▁Multimedia	-14082
uny	-14083
▁mlipuko	-14084
▁Kusimamia	-14085
▁Maadhimisho	-14086
▁MUUN	-14087
alikwa	-14088
▁naona	-14089
▁upendavyo	-14090
ury	-14091
onian	-14092
▁kukubalika	-14093
▁Die	-14094
▁rambi	-14095
▁Description	-14096
400	-14097
▁haijakoma	-14098
▁along	-14099
/03/2017	-14100
share	-14101
gorongoro	-14102
▁Mtangazaji	-14103
can	-14104
wiano	-14105
▁Safi	-14106
▁nalo	-14107
▁Swift	-14108
did	-14109
angalizi	-14110
care	-14111
boreshaji	-14112
▁Manji	-14113
wandani	-14114
▁self	-14115
wazito	-14116
▁Cloud	-14117
▁Mtukufu	-14118
▁Reli	-14119
eremia	-14120
▁diamond	-14121
▁Mbao	-14122
▁Dereva	-14123
1007	-14124
▁endelea	-14125
▁kutegemea	-14126
ually	-14127
▁multiple	-14128
:53	-14129
▁jicho	-14130
▁Cooper	-14131
wene	-14132
zimbani	-14133
sole	-14134
ENGINE	-14135
▁(312)	-14136
▁Listen	-14137
▁Shopify	-14138
▁Street	-14139
▁WAMEJIPANGA	-14140
▁CS	-14141
▁Anti	-14142
▁posting	-14143
▁wanaendelea	-14144
HWA	-14145
ภา	-14146
▁Mario	-14147
▁Dom	-14148
SSF	-14149
fiwe	-14150
voko	-14151
▁Days	-14152
rogramu	-14153
▁mrithi	-14154
▁LIN	-14155
▁Hariri	-14156
▁double	-14157
bove	-14158
ento	-14159
▁Bob	-14160
▁MERIA	-14161
▁Germany	-14162
▁MERIADIANBET	-14163
▁Communication	-14164
▁course	-14165
▁crypto	-14166
▁hawaruhusiwi	-14167
UDS	-14168
SINI	-14169
hofia	-14170
▁#145	-14171
Events	-14172
▁MSIBA	-14173
ultural	-14174
▁Vilevile	-14175
▁kurekodi	-14176
▁Adventures	-14177
▁mkusanyiko	-14178
riba	-14179
▁2020.	-14180
hilafah	-14181
TIBU	-14182
▁08,	-14183
SHINE	-14184
kumbwa	-14185
▁entered	-14186
HARI	-14187
KISHA	-14188
angamiza	-14189
▁2015,	-14190
▁Netta	-14191
▁Chapter	-14192
Playground	-14193
gorithm	-14194
▁kijijini	-14195
▁ilivyojikita	-14196
▁Ala	-14197
▁setting	-14198
omm	-14199
▁4.0	-14200
▁Ant	-14201
▁Hashi	-14202
▁administr	-14203
inde	-14204
▁SETUP	-14205
▁Politica	-14206
:56	-14207
kenya	-14208
▁Conver	-14209
▁mgisha	-14210
▁tools	-14211
EM	-14212
pol	-14213
▁Crossman	-14214
fiji	-14215
urnal	-14216
▁Waangusha	-14217
▁UGC	-14218
takia	-14219
oteuliwa	-14220
▁waajiri	-14221
▁Sm	-14222
Kutoka	-14223
▁Bomba	-14224
▁Sajaki	-14225
▁NCCR	-14226
▁iPad	-14227
▁Waswahili	-14228
▁kupelekwa	-14229
▁AllMichezo	-14230
▁kukodisha	-14231
▁پ	-14232
kram	-14233
▁WAFANYA	-14234
▁maktaba	-14235
RSHIP	-14236
elewe	-14237
▁(317)	-14238
▁EBOLA	-14239
▁pictures	-14240
▁Mwanaspoti	-14241
▁yamekuwa	-14242
ombwa	-14243
▁countries	-14244
▁respective	-14245
TOR	-14246
▁118	-14247
▁students	-14248
hadharisha	-14249
▁incor	-14250
▁tiles	-14251
LK	-14252
▁appea	-14253
▁Waa	-14254
▁WATE	-14255
▁kaburi	-14256
sem	-14257
zushi	-14258
▁Hilal	-14259
ipa	-14260
▁pua	-14261
kizwa	-14262
▁Nane	-14263
enable	-14264
▁templates	-14265
▁Inaendelea	-14266
▁Kielektroniki	-14267
▁mapumziko	-14268
▁Emo	-14269
▁vichwa	-14270
▁Afichua	-14271
▁Sherehe	-14272
hood	-14273
▁event	-14274
▁hauja	-14275
▁muonekano	-14276
▁CHO	-14277
▁limekuwa	-14278
angilia	-14279
▁def	-14280
▁Messi	-14281
▁KIKOSI	-14282
▁Little	-14283
▁MAB	-14284
CHIE	-14285
▁Iki	-14286
FUNGA	-14287
▁KOMBE	-14288
▁wanaofanya	-14289
▁fans	-14290
▁Rehema	-14291
-18	-14292
LEZA	-14293
ykh	-14294
▁wenzangu	-14295
▁urembo	-14296
▁jingine	-14297
▁kuagiza	-14298
▁Mchakato	-14299
▁followers	-14300
▁(96)	-14301
nov	-14302
▁AIR	-14303
▁Anthony	-14304
▁million	-14305
bour	-14306
ridhika	-14307
▁kupenda	-14308
!.	-14309
▁Mshambuliaji	-14310
▁msitu	-14311
▁Process	-14312
▁Eff	-14313
▁Ile	-14314
▁Golden	-14315
▁kizuri	-14316
▁Majukumu	-14317
▁1-0	-14318
▁Athari	-14319
zie	-14320
▁(4,	-14321
▁Utaratibu	-14322
YS	-14323
▁Kichu	-14324
▁Runinga	-14325
Nina	-14326
▁weka	-14327
▁bunduki	-14328
▁날씨	-14329
▁vipo	-14330
▁Mikopo	-14331
▁api	-14332
Français	-14333
▁directory	-14334
▁FAIZA	-14335
▁kucho	-14336
okoka	-14337
▁Ubora	-14338
▁register	-14339
Clo	-14340
inder	-14341
dis	-14342
▁MASOMO	-14343
tena	-14344
▁Zana	-14345
▁BUKUKU	-14346
▁HOSPITA	-14347
▁mstaafu	-14348
▁Mita	-14349
▁kupelekea	-14350
▁]	-14351
▁Salv	-14352
vumilivu	-14353
▁kusafirisha	-14354
chem	-14355
ingie	-14356
▁changu	-14357
▁mb	-14358
▁relev	-14359
▁Rachel	-14360
▁alimu	-14361
LV	-14362
bre	-14363
▁(2006)	-14364
▁concer	-14365
▁visivyo	-14366
▁organization	-14367
▁Maku	-14368
▁Ret	-14369
/07/2017	-14370
▁Makatibu	-14371
▁kufikiri	-14372
▁Mfululizo	-14373
KIRI	-14374
▁Dep	-14375
▁Fan	-14376
▁WAO	-14377
▁hot	-14378
▁bangi	-14379
chumbiana	-14380
▁72	-14381
▁Supp	-14382
▁Maduka	-14383
▁2.1	-14384
▁HIVI	-14385
▁Kibaha	-14386
pishwa	-14387
▁associated	-14388
mpo	-14389
hakiki	-14390
io	-14391
▁BID	-14392
tokaa	-14393
▁kusali	-14394
▁KIKWETE	-14395
▁anapaswa	-14396
▁2025	-14397
ambazwa	-14398
▁Mashambu	-14399
▁specific	-14400
ym	-14401
▁Wasifu	-14402
anyo	-14403
inum	-14404
▁Zaburi	-14405
-17	-14406
well	-14407
▁ADA	-14408
▁Ghost	-14409
▁kusaini	-14410
▁Hidden	-14411
▁Mudavadi	-14412
lled	-14413
▁FORM	-14414
▁dar	-14415
▁wahitimu	-14416
town	-14417
amesema	-14418
Audio	-14419
▁chupa	-14420
▁Manara	-14421
ית	-14422
rease	-14423
▁WASI	-14424
▁proof	-14425
jumba	-14426
isaidi	-14427
▁Ezeki	-14428
frey	-14429
▁Lux	-14430
▁YAI	-14431
▁kufafanua	-14432
MBANI	-14433
▁cool	-14434
▁milima	-14435
▁wapata	-14436
kusudiwa	-14437
DOM	-14438
goo	-14439
▁Mugabe	-14440
▁miundo	-14441
▁Tue	-14442
igaji	-14443
▁kuibuka	-14444
URA	-14445
fri	-14446
ently	-14447
recent	-14448
▁Kiroho	-14449
▁kiserikali	-14450
▁👉	-14451
150	-14452
kusudia	-14453
▁EP	-14454
▁Bry	-14455
▁makan	-14456
▁Newspapers	-14457
▁4.7	-14458
érica	-14459
hatsapp	-14460
▁wanazo	-14461
▁MFUMO	-14462
▁INJILI	-14463
▁Madawa	-14464
br	-14465
▁son	-14466
▁Maalumu	-14467
▁Makubwa	-14468
▁atangaza	-14469
▁username	-14470
shir	-14471
▁ess	-14472
TAKATIFU	-14473
xml	-14474
▁Ul	-14475
▁imepata	-14476
yupo	-14477
▁Has	-14478
▁guide	-14479
▁kikristo	-14480
▁TECHNOLOJIA	-14481
001	-14482
▁dr	-14483
▁Down	-14484
▁Girls	-14485
▁Wapya	-14486
04	-14487
field	-14488
▁niko	-14489
jala	-14490
▁ati	-14491
▁kumfanya	-14492
pito	-14493
▁kipo	-14494
atano	-14495
▁2020,	-14496
▁Angola	-14497
▁zama	-14498
faction	-14499
▁Menejimenti	-14500
▁pas	-14501
fungiwa	-14502
takacho	-14503
▁Pasaka	-14504
▁nyanja	-14505
▁haito	-14506
▁MWANAMKE	-14507
Post	-14508
▁Sorry	-14509
▁Bin	-14510
▁Ramadhan	-14511
▁Bureau	-14512
▁programmer	-14513
▁KUAN	-14514
▁Mapa	-14515
▁Agric	-14516
▁against	-14517
HAYA	-14518
hold	-14519
Chi	-14520
▁Beti	-14521
▁liko	-14522
ombaji	-14523
▁MGAWAN	-14524
▁wachawi	-14525
▁ukitumia	-14526
▁languages	-14527
▁inavyoonekana	-14528
banian	-14529
iter	-14530
▁Dua	-14531
▁MPE	-14532
▁nature	-14533
-20221007	-14534
▁ikilinganishwa	-14535
59	-14536
It	-14537
ULI	-14538
jambo	-14539
▁desturi	-14540
▁started	-14541
▁Kumu	-14542
▁publisher	-14543
May	-14544
anika	-14545
▁Muslim	-14546
▁Fuatilia	-14547
▁Tuwasiliane	-14548
kupenda	-14549
▁njiani	-14550
kadiriwa	-14551
▁resources	-14552
▁solutions	-14553
TAL	-14554
▁Zuma	-14555
▁choo	-14556
▁NIME	-14557
▁waliopata	-14558
ristu	-14559
▁2018.	-14560
▁Andrew	-14561
▁Khilafah	-14562
▁River	-14563
▁Mkubwa	-14564
wadau	-14565
Kazi	-14566
▁fore	-14567
▁Alipo	-14568
LAM	-14569
▁Boys	-14570
▁SIFA	-14571
▁Hunga	-14572
▁focus	-14573
reen	-14574
tanzani	-14575
▁anatumia	-14576
unulia	-14577
vutiwa	-14578
▁BARAZA	-14579
▁aliwahi	-14580
▁experts	-14581
▁Newspaper	-14582
wari	-14583
▁Uamuzi	-14584
▁uchunguziundani	-14585
GANDA	-14586
unter	-14587
zerbai	-14588
▁Commission	-14589
ELEZO	-14590
▁WiFi	-14591
Tags	-14592
▁TAASISI	-14593
▁kuwataka	-14594
▁soon	-14595
▁leads	-14596
▁Msumbiji	-14597
▁uingizaji	-14598
boy	-14599
ruwe	-14600
▁atam	-14601
▁kuajiri	-14602
▁wakisema	-14603
▁Wataalamu	-14604
▁KIM	-14605
▁[[	-14606
▁org	-14607
▁taj	-14608
anyasaji	-14609
▁Mour	-14610
udakutz	-14611
▁unakuwa	-14612
ambukizwa	-14613
▁TWI	-14614
▁akifungua	-14615
ษา	-14616
▁#14	-14617
▁kuanguka	-14618
▁sir	-14619
eleze	-14620
pesa	-14621
peranto	-14622
:55	-14623
▁mdomo	-14624
▁LUGHA	-14625
andikie	-14626
HT	-14627
▁Ses	-14628
nauye	-14629
▁nacho	-14630
▁ORODHA	-14631
ภาษา	-14632
▁Light	-14633
▁Whatsa	-14634
▁ghorofa	-14635
▁utupu	-14636
door	-14637
omoa	-14638
ancer	-14639
ririko	-14640
▁(191)	-14641
▁KWELI	-14642
▁Mwimbaji	-14643
oooo	-14644
▁(192)	-14645
▁MWISHO	-14646
▁KAMPUNI	-14647
BY	-14648
▁att	-14649
▁Rama	-14650
▁Mwekezaji	-14651
diko	-14652
WILI	-14653
▁09,	-14654
▁kuwat	-14655
▁Kuanza	-14656
dge	-14657
▁IM	-14658
▁Ijue	-14659
▁awasili	-14660
▁Televisheni	-14661
TUN	-14662
rones	-14663
▁currently	-14664
gional	-14665
▁kisicho	-14666
▁JUMATANO	-14667
Alike	-14668
▁zanzibar	-14669
FARI	-14670
▁Ukuta	-14671
▁usoni	-14672
ภาษาไทย	-14673
▁MIRADI	-14674
guration	-14675
▁TP	-14676
▁tun	-14677
▁thing	-14678
rvatski	-14679
▁anarudi	-14680
▁wakili	-14681
▁د	-14682
isdom	-14683
▁$555	-14684
▁baby	-14685
▁idodoe	-14686
▁MUUNGANO	-14687
Siasa	-14688
▁waya	-14689
▁Ubalozi	-14690
▁mshiriki	-14691
▁facili	-14692
▁Engineering	-14693
▁BUS	-14694
▁Tes	-14695
▁kumbuka	-14696
▁Cast	-14697
▁MIMI	-14698
▁ute	-14699
ukaji	-14700
▁Kaboni	-14701
peperushi	-14702
▁mwananchi	-14703
mbwa	-14704
sita	-14705
kumbana	-14706
▁according	-14707
city	-14708
▁kufua	-14709
2021	-14710
▁baa	-14711
Verse	-14712
▁(287)	-14713
emaliza	-14714
▁exec	-14715
▁maku	-14716
]]	-14717
▁hear	-14718
▁Bitcoin	-14719
KK	-14720
RAL	-14721
ards	-14722
▁tozo	-14723
▁ameji	-14724
▁ufungaji	-14725
▁Inapokanzwa	-14726
REJ	-14727
flava	-14728
PONGEZA	-14729
daa	-14730
sikini	-14731
▁manage	-14732
▁Hekaheka	-14733
clusive	-14734
▁ע	-14735
▁Accoun	-14736
▁isiyokuwa	-14737
eseji	-14738
▁JUMU	-14739
▁mga	-14740
▁Kada	-14741
content	-14742
▁haru	-14743
llscreen	-14744
▁msaidizi	-14745
▁anapata	-14746
▁Jr	-14747
▁spa	-14748
siona	-14749
▁Ulemavu	-14750
▁ENTER	-14751
▁lango	-14752
▁yatakuwa	-14753
▁OI	-14754
▁Waja	-14755
barikiwa	-14756
Show	-14757
▁Legacy	-14758
kki	-14759
▁tunaona	-14760
▁Freemason	-14761
▁Ngorongoro	-14762
▁wajasiriamali	-14763
😂😂	-14764
▁Wito	-14765
▁Waunzi	-14766
▁hazija	-14767
▁Greek	-14768
▁Viwanja	-14769
▁matengenezo	-14770
▁communication	-14771
هُ	-14772
▁kiba	-14773
▁naamini	-14774
SIA	-14775
▁once	-14776
tumu	-14777
▁Fer	-14778
Vituko	-14779
▁imezimishwa	-14780
EMA	-14781
utri	-14782
igiza	-14783
INGIDA	-14784
Deutsch	-14785
YANSI	-14786
▁Angel	-14787
unuliwa	-14788
shauriwa	-14789
KIKI	-14790
▁ghasia	-14791
▁MIKOA	-14792
▁Makini	-14793
▁injini	-14794
▁kipande	-14795
▁Uzbekistan	-14796
▁Kamwe	-14797
▁faraja	-14798
▁Γ	-14799
ime	-14800
▁Cali	-14801
▁Used	-14802
▁Ujauzito	-14803
▁2017/2018	-14804
▁advertising	-14805
DewjiBlogNews	-14806
▁py	-14807
amala	-14808
▁Huja	-14809
▁wanatumia	-14810
mya	-14811
▁3/	-14812
▁Aust	-14813
▁Elia	-14814
▁budi	-14815
▁kuili	-14816
▁takatifu	-14817
TAZAMA	-14818
▁Sek	-14819
▁bra	-14820
▁Jiwe	-14821
▁matches	-14822
▁low	-14823
check	-14824
▁PAUL	-14825
encing	-14826
▁least	-14827
▁Română	-14828
▁tutakuwa	-14829
▁farasi	-14830
▁Kairuki	-14831
▁kisanduku	-14832
zilishi	-14833
ech	-14834
▁₹1	-14835
code	-14836
▁UVI	-14837
▁BURE	-14838
▁easi	-14839
▁maja	-14840
▁Salama	-14841
▁pan	-14842
▁shaba	-14843
▁unaji	-14844
▁Control	-14845
▁carefully	-14846
FP	-14847
TAIN	-14848
▁yaliyopo	-14849
▁pu	-14850
Zulu	-14851
▁Mpe	-14852
Contact	-14853
fundishwa	-14854
▁relevant	-14855
▁technology	-14856
ells	-14857
nada	-14858
▁bha	-14859
▁means	-14860
sai	-14861
TIZO	-14862
▁pol	-14863
Online	-14864
▁kutumbu	-14865
mari	-14866
zamwa	-14867
▁items	-14868
▁Bulga	-14869
▁manager	-14870
ordina	-14871
▁fadhili	-14872
▁women	-14873
▁MAHUSIANO	-14874
GV	-14875
LOLE	-14876
opens	-14877
▁5)	-14878
▁WAS	-14879
wajibikaji	-14880
▁designers	-14881
Up	-14882
TERS	-14883
wabu	-14884
kramenti	-14885
kweli	-14886
tually	-14887
▁Vs	-14888
okozi	-14889
▁BINA	-14890
▁Nnauye	-14891
▁Class	-14892
▁idhini	-14893
▁kugusa	-14894
▁bafu	-14895
follow	-14896
HANI	-14897
▁cele	-14898
▁Audios	-14899
▁kizimbani	-14900
core	-14901
▁najua	-14902
KATA	-14903
▁zahanati	-14904
▁Dhami	-14905
▁jinai	-14906
▁nitakapo	-14907
idth	-14908
▁Kivu	-14909
Uta	-14910
▁chafu	-14911
Commerce	-14912
▁nor	-14913
▁tukiwa	-14914
tv	-14915
gomvi	-14916
▁UWANJA	-14917
-26	-14918
olski	-14919
▁maiti	-14920
▁kuundwa	-14921
tha	-14922
▁145	-14923
ambat	-14924
books	-14925
wasaidia	-14926
JIBU	-14927
lier	-14928
▁mafuriko	-14929
▁wakifuatilia	-14930
achana	-14931
▁mkojo	-14932
▁Forgot	-14933
▁sanamu	-14934
▁Computer	-14935
▁kujitoa	-14936
▁submit	-14937
▁mantiki	-14938
qip	-14939
PELE	-14940
fted	-14941
vuno	-14942
▁RIWA	-14943
▁areas	-14944
saidiwa	-14945
▁Ustawi	-14946
▁sikukuu	-14947
▁fullscreen	-14948
▁91	-14949
andom	-14950
umbile	-14951
.......	-14952
▁Fungua	-14953
▁education	-14954
lied	-14955
▁bio	-14956
ished	-14957
▁lori	-14958
▁Vizuri	-14959
▁Graphics	-14960
▁yamtangaza	-14961
▁Jus	-14962
zamaji	-14963
▁Mwenge	-14964
▁Uzoefu	-14965
▁tawala	-14966
▁ushuhuda	-14967
LB	-14968
▁(101)	-14969
▁(801)	-14970
Uku	-14971
/2010	-14972
▁SINGIDA	-14973
cca	-14974
▁MTI	-14975
kumba	-14976
▁Vicheza	-14977
▁tulivyo	-14978
berna	-14979
inger	-14980
▁relation	-14981
baada	-14982
stara	-14983
▁mnada	-14984
▁Features	-14985
▁Mapishi	-14986
kusanyaji	-14987
▁MWANDISHI	-14988
▁Meza	-14989
▁akani	-14990
ogopa	-14991
▁(76)	-14992
GUE	-14993
gress	-14994
▁LIST	-14995
CHWA	-14996
▁paper	-14997
▁Monoksidi	-14998
▁production	-14999
wafanya	-15000
danganya	-15001
▁Veri	-15002
▁laki	-15003
▁Deadline	-15004
▁iliyoundwa	-15005
QY	-15006
▁Sex	-15007
embly	-15008
▁onyo	-15009
▁bingwa	-15010
▁Traffic	-15011
peli	-15012
mwana	-15013
▁Mashu	-15014
logical	-15015
▁mwangu	-15016
▁WhatsaApp	-15017
boko	-15018
▁amu	-15019
rambi	-15020
▁Tulonge	-15021
Wanangu	-15022
▁guests	-15023
▁Wanangu	-15024
Wana	-15025
2]	-15026
POTI	-15027
▁Mourinho	-15028
pse	-15029
▁HARA	-15030
▁special	-15031
▁wasomaji	-15032
▁corona	-15033
/11/2016	-15034
▁(€	-15035
▁ASA	-15036
VR	-15037
▁Kigamboni	-15038
thy	-15039
▁129	-15040
▁Ndipo	-15041
▁reali	-15042
▁optimi	-15043
ion	-15044
ust	-15045
injili	-15046
::	-15047
▁Persian	-15048
▁kuhimiza	-15049
▁tunahitaji	-15050
SHO	-15051
▁body	-15052
▁Mavoko	-15053
▁kiini	-15054
▁Nyenzo	-15055
enyekiti	-15056
▁Kufunga	-15057
LINZI	-15058
oldid	-15059
rgyz	-15060
▁Node	-15061
▁Exact	-15062
▁kuuawa	-15063
kendi	-15064
atistics	-15065
tr	-15066
▁Han	-15067
MIZA	-15068
▁alitaka	-15069
-21	-15070
▁zinavyo	-15071
▁وَ	-15072
▁TUZO	-15073
▁uadilifu	-15074
▁option	-15075
▁kumwambia	-15076
▁net	-15077
▁kavu	-15078
swagga	-15079
▁night	-15080
▁machafuko	-15081
▁KITUO	-15082
▁edited	-15083
▁upload	-15084
=4.	-15085
gapi	-15086
lina	-15087
▁EAC	-15088
pindu	-15089
dharau	-15090
▁autom	-15091
.4	-15092
HD	-15093
▁NG	-15094
emeko	-15095
▁kumekuwa	-15096
Pos	-15097
rong	-15098
▁Blogs	-15099
yafanya	-15100
▁manunuzi	-15101
▁Anaandika	-15102
hazi	-15103
▁mov	-15104
▁mpendwa	-15105
pendelewa	-15106
▁solution	-15107
▁Tre	-15108
▁Kako	-15109
▁Khalid	-15110
▁ukombozi	-15111
wal	-15112
ronic	-15113
zuili	-15114
▁mashuhuri	-15115
reaming	-15116
▁kuzungumzia	-15117
hanna	-15118
▁Singapore	-15119
▁Korean	-15120
▁Unachezwa	-15121
▁shirikisho	-15122
▁kat	-15123
▁tut	-15124
wards	-15125
▁final	-15126
bah	-15127
▁uke	-15128
ukuu	-15129
▁MWI	-15130
▁SCHOLA	-15131
▁archite	-15132
Do	-15133
km	-15134
Text	-15135
▁MIL	-15136
▁mraba	-15137
▁Hil	-15138
▁Recomm	-15139
qiy	-15140
▁STU	-15141
▁mbuzi	-15142
▁Mifumo	-15143
▁aitwaye	-15144
▁friends	-15145
▁majanga	-15146
▁kubadilishana	-15147
▁Bil	-15148
terres	-15149
▁Kiche	-15150
▁viatu	-15151
▁Wizkid	-15152
▁warsha	-15153
▁->	-15154
cious	-15155
▁modi	-15156
▁2018,	-15157
▁Nyu	-15158
Italiano	-15159
▁thanks	-15160
▁kuathiri	-15161
GUA	-15162
HUSIANA	-15163
itwacho	-15164
▁AFUNGUA	-15165
WASA	-15166
▁ykpaïHcbka	-15167
fadhilipaulo	-15168
Leo	-15169
tore	-15170
▁cur	-15171
▁JINA	-15172
▁Drama	-15173
▁Medical	-15174
▁zinazoku	-15175
▁READ	-15176
▁draw	-15177
▁Zamani	-15178
▁muafaka	-15179
▁umebadilishwa	-15180
println	-15181
▁Dhambi	-15182
atian	-15183
esterday	-15184
▁Akizungumzia	-15185
diliwa	-15186
▁Ilani	-15187
▁Bos	-15188
▁Def	-15189
▁extra	-15190
▁copyri	-15191
▁Watakatifu	-15192
▁mom	-15193
▁plea	-15194
▁(260)	-15195
▁2017/18	-15196
▁options	-15197
▁NYINGINE	-15198
vunjwa	-15199
▁domain	-15200
anci	-15201
faut	-15202
ameter	-15203
▁KARIBU	-15204
▁maboresho	-15205
▁zinazohusiana	-15206
vey	-15207
▁WCB	-15208
▁ver	-15209
▁anakuwa	-15210
▁Zone	-15211
▁mwamini	-15212
▁Tunaweza	-15213
MN	-15214
pdf	-15215
▁76	-15216
zingati	-15217
▁Kushoto	-15218
enguliwa	-15219
▁KC	-15220
ishie	-15221
lized	-15222
amination	-15223
▁Marufuku	-15224
AJI	-15225
▁yazidi	-15226
▁kupanua	-15227
▁Wor	-15228
▁kupitisha	-15229
moon	-15230
batilo	-15231
▁Colla	-15232
▁Movies	-15233
▁MILIONI	-15234
▁getting	-15235
▁Statu	-15236
inc	-15237
▁29:	-15238
sting	-15239
▁Diaspora	-15240
iry	-15241
▁Nyingi	-15242
WAI	-15243
▁umbo	-15244
▁added	-15245
▁tunao	-15246
▁AMBAYO	-15247
▁udhaifu	-15248
▁Nao	-15249
▁uchoraji	-15250
▁kiitwacho	-15251
damizi	-15252
▁Kodi	-15253
▁hold	-15254
▁makadirio	-15255
▁iT	-15256
YETU	-15257
▁Badala	-15258
▁sekunde	-15259
▁kutoroka	-15260
▁\\	-15261
▁Dawati	-15262
▁matter	-15263
789	-15264
GL	-15265
fre	-15266
▁akimkabidhi	-15267
▁SW	-15268
▁Tas	-15269
▁yat	-15270
▁ر	-15271
yaa	-15272
▁persona	-15273
▁Guardian	-15274
das	-15275
ubiri	-15276
▁later	-15277
▁SERVICES	-15278
International	-15279
▁inam	-15280
▁estab	-15281
halisia	-15282
onekane	-15283
▁CATEGO	-15284
▁kulipia	-15285
SD	-15286
BORA	-15287
hane	-15288
group	-15289
▁mwakilishi	-15290
▁Kawaida	-15291
▁Ori	-15292
familia	-15293
▁kupigana	-15294
viti	-15295
▁PLA	-15296
dishwa	-15297
angamia	-15298
WhatsApp	-15299
▁American	-15300
Canada	-15301
▁Ofisa	-15302
▁husababisha	-15303
intho	-15304
▁TOVUTI	-15305
▁Employment	-15306
bly	-15307
sikika	-15308
vation	-15309
▁Malengo	-15310
▁animation	-15311
▁performance	-15312
▁(0	-15313
▁6:	-15314
▁fir	-15315
▁20174	-15316
▁Madam	-15317
▁kunufaika	-15318
▁Yah	-15319
▁YAKA	-15320
▁maua	-15321
▁mind	-15322
▁04/10	-15323
▁Makeup	-15324
▁WAZAZI	-15325
▁trilioni	-15326
▁15.	-15327
CLU	-15328
jpg	-15329
fukuzwa	-15330
▁Hukumu	-15331
▁imeendelea	-15332
anka	-15333
reta	-15334
▁tell	-15335
ambukiza	-15336
▁108	-15337
▁kutafakari	-15338
TFF	-15339
pashe	-15340
▁20.	-15341
▁Ari	-15342
Ajira	-15343
▁aa	-15344
PILI	-15345
▁IBA	-15346
▁apate	-15347
▁issue	-15348
▁wajawazito	-15349
Mar	-15350
▁KABLA	-15351
▁Ugavi	-15352
5).	-15353
▁GPS	-15354
▁kuhamia	-15355
▁Assistant	-15356
▁Tab	-15357
llenge	-15358
▁ideas	-15359
▁ARTI	-15360
▁Mlezi	-15361
Apri	-15362
▁MWILI	-15363
▁Myanmar	-15364
Ge	-15365
ruka	-15366
مْ	-15367
▁Raji	-15368
▁mjamzito	-15369
▁shop	-15370
▁Nyo	-15371
▁tunge	-15372
▁choose	-15373
▁itasaidia	-15374
57	-15375
▁BANK	-15376
TAINMENT	-15377
▁changes	-15378
▁Kuzi	-15379
▁kilio	-15380
▁msalaba	-15381
▁BEST	-15382
▁07/10	-15383
▁nabii	-15384
▁kuhamisha	-15385
epuka	-15386
▁mtangazaji	-15387
▁msh	-15388
gne	-15389
▁pool	-15390
uses	-15391
▁Daima	-15392
▁Tegeta	-15393
▁Uendeshaji	-15394
▁kilichofanyika	-15395
ceed	-15396
▁WAK	-15397
Choka	-15398
▁Ako	-15399
▁ufupi	-15400
▁kijani	-15401
▁Country	-15402
▁Publications	-15403
▁Ahsante	-15404
▁WATAKIWA	-15405
HANA	-15406
▁future	-15407
▁Wakulima	-15408
some	-15409
▁01/10	-15410
▁kubofya	-15411
▁shopping	-15412
▁kona	-15413
▁mguu	-15414
▁KULI	-15415
apishwa	-15416
▁mwangaza	-15417
▁BAR	-15418
shikamano	-15419
▁wafungwa	-15420
UNE	-15421
POTE	-15422
▁Vyumba	-15423
▁uhamisho	-15424
jis	-15425
▁acad	-15426
▁(238)	-15427
fishaji	-15428
▁Kisumu	-15429
MID	-15430
under	-15431
▁Scan	-15432
▁alidai	-15433
▁inform	-15434
▁magoli	-15435
haric	-15436
▁Viji	-15437
terem	-15438
▁MZEE	-15439
▁mkondo	-15440
▁sampuli	-15441
▁Training	-15442
___	-15443
tie	-15444
zel	-15445
rden	-15446
erufi	-15447
/11/2017	-15448
▁Instrum	-15449
-(	-15450
▁69	-15451
▁139	-15452
▁hawakuwa	-15453
LUB	-15454
tag	-15455
Hii	-15456
▁(95)	-15457
▁forum	-15458
▁heart	-15459
▁Msanidi	-15460
TB	-15461
friend	-15462
▁Godfrey	-15463
▁vitambulisho	-15464
rance	-15465
▁drive	-15466
TENDAJI	-15467
▁naweza	-15468
▁Bongoflava	-15469
pet	-15470
▁COMP	-15471
▁(289)	-15472
▁Isaya	-15473
▁clean	-15474
▁kuziba	-15475
▁WASILIANA	-15476
▁Statues	-15477
Nederlands	-15478
▁Viunganishi	-15479
ente	-15480
▁Sim	-15481
▁third	-15482
▁kuhusika	-15483
▁ENTERTAINMENT	-15484
▁Bir	-15485
MISHA	-15486
▁film	-15487
▁layout	-15488
▁ITA	-15489
labani	-15490
kishu	-15491
Türkçe	-15492
▁Shilole	-15493
ques	-15494
perty	-15495
utive	-15496
▁appeared	-15497
▁Kupunguza	-15498
[...]
